0000 B1
0001 E3
0002 68
0003 2E
0004 B8
0005 77
0006 2D
0007 28
0008 19
0009 07
000A 5C
000B 9B
000C 35
000D 63
000E 9F
000F C3
0010 E2
0011 C3
0012 75
0013 43
0014 67
0015 FD
0016 38
0017 A9
0018 C0
0019 50
001A D7
001B D4
001C 52
001D C8
001E 9C
001F 0E
0020 3F
0021 DB
0022 95
0023 76
0024 3E
0025 82
0026 4C
0027 07
0028 AC
0029 94
002A 11
002B 47
002C D4
002D CD
002E 84
002F 86
0030 1B
0031 1E
0032 63
0033 2C
0034 AC
0035 F3
0036 0A
0037 55
0038 2E
0039 7E
003A EB
003B AB
003C 37
003D E9
003E 11
003F 64
0040 FA
0041 EA
0042 FB
0043 BC
0044 B3
0045 EF
0046 E5
0047 0D
0048 EC
0049 4D
004A D6
004B 7B
004C C5
004D 69
004E 64
004F 91
0050 56
0051 81
0052 13
0053 A6
0054 DE
0055 AE
0056 20
0057 B8
0058 A1
0059 1C
005A 8E
005B A9
005C B3
005D 5C
005E C3
005F 7D
0060 73
0061 C8
0062 2D
0063 F9
0064 09
0065 DD
0066 05
0067 96
0068 22
0069 E6
006A 42
006B 0F
006C 07
006D B3
006E 5B
006F 1F
0070 6D
0071 79
0072 EB
0073 A6
0074 C7
0075 14
0076 0D
0077 21
0078 59
0079 00
007A EE
007B 23
007C 6E
007D DC
007E 84
007F 43
0080 5B
0081 A6
0082 F6
0083 38
0084 7A
0085 E1
0086 BA
0087 D3
0088 86
0089 5C
008A D8
008B 3E
008C A8
008D 9E
008E 9F
008F 77
0090 53
0091 91
0092 10
0093 96
0094 5B
0095 2E
0096 0A
0097 22
0098 21
0099 A1
009A 81
009B 7B
009C AB
009D C8
009E 69
009F 42
00A0 06
00A1 DA
00A2 D7
00A3 6E
00A4 8D
00A5 A8
00A6 D7
00A7 96
00A8 86
00A9 AD
00AA 6F
00AB DD
00AC BF
00AD C2
00AE 17
00AF 96
00B0 F7
00B1 1F
00B2 AA
00B3 BB
00B4 D2
00B5 29
00B6 B1
00B7 CB
00B8 F7
00B9 E2
00BA 3D
00BB C1
00BC 07
00BD 43
00BE 23
00BF 19
00C0 78
00C1 CB
00C2 12
00C3 84
00C4 81
00C5 F6
00C6 1F
00C7 3C
00C8 EE
00C9 F2
00CA F8
00CB 90
00CC 33
00CD 6C
00CE FA
00CF DD
00D0 09
00D1 0D
00D2 28
00D3 08
00D4 26
00D5 C5
00D6 39
00D7 84
00D8 F5
00D9 C5
00DA DA
00DB 46
00DC 1D
00DD F1
00DE DF
00DF AD
00E0 DD
00E1 8B
00E2 EE
00E3 B6
00E4 9A
00E5 51
00E6 5B
00E7 8F
00E8 E1
00E9 50
00EA D0
00EB 9F
00EC B6
00ED B8
00EE 80
00EF B9
00F0 87
00F1 B9
00F2 1E
00F3 2C
00F4 73
00F5 71
00F6 91
00F7 56
00F8 AD
00F9 C6
00FA 2D
00FB FB
00FC F2
00FD 48
00FE 39
00FF 9C
0100 F1
0101 67
0102 15
0103 B3
0104 C1
0105 64
0106 B4
0107 C0
0108 0B
0109 A0
010A ED
010B 48
010C 0A
010D 4E
010E 19
010F 22
0110 1B
0111 6C
0112 2E
0113 73
0114 87
0115 AE
0116 E4
0117 6A
0118 48
0119 21
011A BA
011B 8B
011C F0
011D CA
011E F6
011F E9
0120 17
0121 54
0122 DB
0123 8B
0124 93
0125 80
0126 DC
0127 38
0128 D5
0129 D8
012A 15
012B 72
012C 80
012D 2C
012E ED
012F 0B
0130 EE
0131 3E
0132 38
0133 C4
0134 F0
0135 05
0136 C7
0137 99
0138 57
0139 E8
013A AE
013B 3E
013C F7
013D 00
013E 03
013F 6B
0140 8B
0141 46
0142 51
0143 F5
0144 89
0145 29
0146 49
0147 E4
0148 64
0149 82
014A F5
014B 40
014C 1C
014D 92
014E D2
014F 0B
0150 92
0151 EB
0152 BC
0153 18
0154 04
0155 40
0156 DC
0157 99
0158 84
0159 AA
015A 8C
015B 2B
015C E4
015D 57
015E 62
015F 6D
0160 F0
0161 CA
0162 6F
0163 7A
0164 60
0165 FA
0166 D7
0167 6E
0168 AB
0169 9E
016A E5
016B A6
016C C4
016D DC
016E DD
016F BD
0170 41
0171 27
0172 8B
0173 10
0174 F1
0175 D6
0176 70
0177 07
0178 9F
0179 75
017A 7B
017B 0D
017C 25
017D 5F
017E CB
017F CC
0180 9E
0181 4B
0182 20
0183 42
0184 17
0185 0C
0186 3E
0187 DA
0188 D8
0189 7C
018A 81
018B 74
018C FF
018D 3E
018E 2E
018F B1
0190 8B
0191 50
0192 C3
0193 12
0194 11
0195 BF
0196 D7
0197 80
0198 00
0199 08
019A CA
019B CD
019C 4B
019D AA
019E 73
019F 5C
01A0 EC
01A1 0B
01A2 61
01A3 02
01A4 89
01A5 32
01A6 D5
01A7 91
01A8 52
01A9 C1
01AA 27
01AB 70
01AC 11
01AD 0E
01AE B8
01AF 02
01B0 32
01B1 E8
01B2 0A
01B3 E7
01B4 06
01B5 E5
01B6 1F
01B7 2F
01B8 E7
01B9 E6
01BA 6A
01BB 64
01BC 63
01BD 08
01BE 41
01BF 98
01C0 67
01C1 71
01C2 DE
01C3 89
01C4 5C
01C5 28
01C6 FB
01C7 F9
01C8 E0
01C9 2A
01CA 98
01CB 7A
01CC 16
01CD 4E
01CE EB
01CF 80
01D0 DC
01D1 F1
01D2 47
01D3 1C
01D4 A5
01D5 76
01D6 78
01D7 8F
01D8 01
01D9 5B
01DA C5
01DB 65
01DC 20
01DD 4B
01DE D8
01DF 29
01E0 DF
01E1 2B
01E2 4A
01E3 51
01E4 0F
01E5 32
01E6 F9
01E7 35
01E8 E9
01E9 F3
01EA C6
01EB C7
01EC 64
01ED EB
01EE 0A
01EF FD
01F0 7B
01F1 83
01F2 FA
01F3 4B
01F4 12
01F5 E1
01F6 A1
01F7 46
01F8 F1
01F9 97
01FA B5
01FB B8
01FC 92
01FD C8
01FE 51
01FF AC
0200 BA
0201 FE
0202 19
0203 E7
0204 6E
0205 E5
0206 70
0207 F4
0208 92
0209 5C
020A 41
020B FE
020C 06
020D 07
020E FE
020F 71
0210 15
0211 BA
0212 22
0213 9B
0214 8A
0215 C8
0216 DC
0217 77
0218 0C
0219 03
021A E6
021B 6A
021C 46
021D 77
021E 48
021F 76
0220 0E
0221 3E
0222 ED
0223 97
0224 4E
0225 2A
0226 E9
0227 89
0228 1D
0229 A6
022A 3E
022B CF
022C FA
022D 75
022E 25
022F E9
0230 10
0231 D6
0232 CD
0233 B2
0234 86
0235 14
0236 34
0237 4A
0238 DC
0239 F3
023A 8E
023B 0F
023C EA
023D E3
023E 47
023F 69
0240 3A
0241 95
0242 2D
0243 4E
0244 79
0245 CF
0246 22
0247 6B
0248 43
0249 11
024A CC
024B 21
024C EB
024D A0
024E 6F
024F C5
0250 2E
0251 AE
0252 21
0253 89
0254 71
0255 87
0256 27
0257 99
0258 1F
0259 7E
025A 39
025B 06
025C 82
025D E2
025E 07
025F 3B
0260 4B
0261 88
0262 0C
0263 7C
0264 90
0265 77
0266 E6
0267 4B
0268 F5
0269 39
026A EC
026B FC
026C 18
026D 38
026E 77
026F 02
0270 C3
0271 C7
0272 42
0273 B5
0274 46
0275 4A
0276 20
0277 9B
0278 69
0279 4E
027A 41
027B 9A
027C F7
027D D1
027E F7
027F 1C
0280 E4
0281 3E
0282 70
0283 A6
0284 A3
0285 87
0286 B8
0287 A7
0288 54
0289 5D
028A 75
028B E2
028C 5C
028D 7B
028E 73
028F 72
0290 77
0291 75
0292 20
0293 0E
0294 11
0295 CB
0296 EC
0297 E6
0298 49
0299 C8
029A 77
029B 20
029C 6A
029D CD
029E AD
029F 37
02A0 BB
02A1 99
02A2 8B
02A3 35
02A4 1C
02A5 EB
02A6 4D
02A7 0C
02A8 0B
02A9 C4
02AA 8B
02AB 3A
02AC C8
02AD 8D
02AE D6
02AF F3
02B0 AD
02B1 47
02B2 31
02B3 9E
02B4 8C
02B5 85
02B6 CF
02B7 29
02B8 BB
02B9 11
02BA 93
02BB BC
02BC 4F
02BD 8B
02BE 28
02BF 29
02C0 6B
02C1 FE
02C2 97
02C3 E4
02C4 62
02C5 27
02C6 76
02C7 8B
02C8 0E
02C9 1D
02CA 1F
02CB E1
02CC 8B
02CD 03
02CE 4A
02CF 7B
02D0 F4
02D1 87
02D2 DE
02D3 41
02D4 1E
02D5 89
02D6 81
02D7 00
02D8 E4
02D9 05
02DA C0
02DB 62
02DC 3A
02DD 3D
02DE 36
02DF FE
02E0 66
02E1 8B
02E2 15
02E3 B7
02E4 C7
02E5 FD
02E6 29
02E7 B3
02E8 57
02E9 F7
02EA 72
02EB 86
02EC A6
02ED BD
02EE DA
02EF AE
02F0 77
02F1 6D
02F2 5F
02F3 D6
02F4 F3
02F5 8D
02F6 A8
02F7 AA
02F8 89
02F9 37
02FA FF
02FB 6A
02FC 38
02FD 3F
02FE D5
02FF 1B
0300 8C
0301 9D
0302 0D
0303 64
0304 76
0305 46
0306 84
0307 F7
0308 C9
0309 49
030A 83
030B 51
030C 55
030D 73
030E 4F
030F 9F
0310 65
0311 80
0312 4D
0313 62
0314 43
0315 BF
0316 99
0317 4E
0318 42
0319 8A
031A 46
031B B1
031C 52
031D E1
031E AD
031F 52
0320 FA
0321 34
0322 FA
0323 4A
0324 4C
0325 5D
0326 74
0327 4E
0328 ED
0329 E3
032A 77
032B 98
032C C6
032D 38
032E 96
032F B0
0330 57
0331 9B
0332 49
0333 43
0334 D2
0335 B0
0336 34
0337 6C
0338 A8
0339 E7
033A 04
033B 6D
033C 77
033D E8
033E 12
033F E7
0340 FB
0341 11
0342 DE
0343 9B
0344 85
0345 F3
0346 FB
0347 D3
0348 88
0349 3B
034A 72
034B 54
034C 05
034D D3
034E 4F
034F 75
0350 45
0351 79
0352 13
0353 5D
0354 CC
0355 6C
0356 D4
0357 10
0358 78
0359 B3
035A 9E
035B 7C
035C 9D
035D 31
035E EB
035F 78
0360 77
0361 8F
0362 C9
0363 CC
0364 F1
0365 3F
0366 34
0367 FC
0368 77
0369 36
036A A3
036B CC
036C 58
036D 37
036E 59
036F 21
0370 FF
0371 97
0372 49
0373 3C
0374 FF
0375 80
0376 5C
0377 53
0378 C3
0379 F9
037A 14
037B DB
037C 99
037D 7A
037E E4
037F C4
0380 B7
0381 A4
0382 65
0383 49
0384 B3
0385 7B
0386 E5
0387 A5
0388 3B
0389 0E
038A 80
038B 00
038C 9E
038D 0C
038E 92
038F 91
0390 67
0391 70
0392 F2
0393 63
0394 32
0395 D8
0396 32
0397 47
0398 33
0399 0C
039A F6
039B 8F
039C 2F
039D 5E
039E BE
039F 17
03A0 87
03A1 A1
03A2 DC
03A3 88
03A4 22
03A5 1D
03A6 9E
03A7 DC
03A8 3B
03A9 58
03AA 20
03AB FA
03AC 00
03AD F2
03AE EF
03AF 62
03B0 25
03B1 51
03B2 71
03B3 3B
03B4 07
03B5 94
03B6 C5
03B7 7F
03B8 A1
03B9 A8
03BA EF
03BB E7
03BC 96
03BD 6D
03BE 18
03BF C1
03C0 EB
03C1 FC
03C2 47
03C3 6C
03C4 BB
03C5 78
03C6 21
03C7 CC
03C8 FA
03C9 4C
03CA 65
03CB 68
03CC E9
03CD B9
03CE D9
03CF 5D
03D0 B5
03D1 F6
03D2 9E
03D3 43
03D4 A5
03D5 F8
03D6 6D
03D7 C0
03D8 F0
03D9 9A
03DA D7
03DB 1E
03DC C6
03DD F7
03DE 9B
03DF B8
03E0 23
03E1 E8
03E2 C7
03E3 2E
03E4 55
03E5 7E
03E6 AD
03E7 96
03E8 A3
03E9 D7
03EA 66
03EB C2
03EC 31
03ED ED
03EE 2F
03EF 43
03F0 2A
03F1 79
03F2 54
03F3 14
03F4 DA
03F5 AE
03F6 BE
03F7 18
03F8 DF
03F9 04
03FA 3F
03FB EB
03FC E3
03FD B6
03FE 71
03FF 12
0400 A2
0401 F3
0402 D5
0403 21
0404 F9
0405 D4
0406 82
0407 26
0408 64
0409 B2
040A 82
040B 64
040C 48
040D 3F
040E FB
040F B3
0410 76
0411 25
0412 E5
0413 7E
0414 43
0415 9F
0416 81
0417 36
0418 28
0419 2B
041A E1
041B CF
041C B9
041D A1
041E DB
041F 3E
0420 58
0421 7C
0422 30
0423 8A
0424 80
0425 F3
0426 63
0427 EC
0428 3D
0429 27
042A AC
042B 58
042C D0
042D 24
042E C8
042F 87
0430 6B
0431 6D
0432 F9
0433 63
0434 5F
0435 C8
0436 71
0437 1E
0438 BC
0439 76
043A DE
043B E3
043C 4C
043D 0B
043E 52
043F 75
0440 97
0441 B3
0442 21
0443 B2
0444 D5
0445 FC
0446 23
0447 91
0448 62
0449 96
044A E6
044B A0
044C 0D
044D AA
044E 50
044F 1A
0450 0E
0451 39
0452 0E
0453 14
0454 12
0455 EC
0456 16
0457 44
0458 91
0459 92
045A 20
045B 1B
045C 9B
045D A9
045E C3
045F 01
0460 18
0461 1E
0462 9C
0463 06
0464 AF
0465 A7
0466 DA
0467 27
0468 28
0469 D6
046A DA
046B 63
046C DB
046D 95
046E 41
046F 61
0470 D4
0471 D7
0472 3E
0473 A1
0474 F3
0475 57
0476 1F
0477 88
0478 BE
0479 C7
047A 85
047B 11
047C 93
047D 28
047E F3
047F 03
0480 C6
0481 30
0482 2D
0483 88
0484 7B
0485 A9
0486 3F
0487 B9
0488 71
0489 6B
048A 47
048B 77
048C 2E
048D 9D
048E 14
048F 1D
0490 3E
0491 46
0492 E0
0493 3D
0494 1F
0495 36
0496 17
0497 0D
0498 24
0499 E9
049A D9
049B 53
049C 1E
049D B1
049E 83
049F 4A
04A0 B6
04A1 B8
04A2 15
04A3 CF
04A4 6B
04A5 60
04A6 FC
04A7 0D
04A8 E7
04A9 78
04AA 0C
04AB 76
04AC 36
04AD 2C
04AE 17
04AF 74
04B0 9A
04B1 15
04B2 B3
04B3 97
04B4 03
04B5 3A
04B6 19
04B7 45
04B8 EE
04B9 B0
04BA 67
04BB 6A
04BC D9
04BD 0E
04BE 26
04BF 7C
04C0 68
04C1 B0
04C2 89
04C3 80
04C4 8A
04C5 73
04C6 A7
04C7 3B
04C8 58
04C9 33
04CA DD
04CB 6C
04CC A8
04CD AF
04CE AE
04CF 83
04D0 4E
04D1 2C
04D2 84
04D3 F4
04D4 69
04D5 6A
04D6 32
04D7 33
04D8 18
04D9 8B
04DA 44
04DB A9
04DC 3F
04DD EC
04DE 05
04DF 88
04E0 79
04E1 5F
04E2 ED
04E3 54
04E4 CA
04E5 88
04E6 57
04E7 98
04E8 DC
04E9 E8
04EA FF
04EB D3
04EC 49
04ED DB
04EE 3B
04EF DF
04F0 57
04F1 07
04F2 21
04F3 0A
04F4 C1
04F5 9F
04F6 D9
04F7 E0
04F8 28
04F9 64
04FA 11
04FB DF
04FC 3B
04FD EB
04FE D1
04FF CD
0500 30
0501 7B
0502 B8
0503 67
0504 37
0505 42
0506 5A
0507 91
0508 07
0509 9F
050A 0C
050B 53
050C F7
050D 1C
050E C0
050F 73
0510 82
0511 D9
0512 97
0513 3B
0514 92
0515 99
0516 B4
0517 51
0518 E5
0519 74
051A 77
051B 51
051C E4
051D 12
051E 98
051F 9B
0520 7A
0521 EF
0522 6A
0523 82
0524 E9
0525 14
0526 FE
0527 A2
0528 77
0529 6E
052A 13
052B 66
052C 39
052D 16
052E 6C
052F C5
0530 8B
0531 48
0532 0C
0533 A3
0534 14
0535 CF
0536 0D
0537 7D
0538 37
0539 09
053A 1E
053B CC
053C A5
053D FF
053E 88
053F 9A
0540 3D
0541 6C
0542 C8
0543 FB
0544 5A
0545 F5
0546 2A
0547 F9
0548 11
0549 26
054A A0
054B 8A
054C D8
054D 70
054E F5
054F 29
0550 51
0551 0E
0552 81
0553 7A
0554 96
0555 53
0556 DC
0557 78
0558 6A
0559 46
055A 2C
055B A8
055C 52
055D 16
055E 19
055F 4B
0560 FA
0561 A7
0562 B8
0563 8A
0564 AF
0565 17
0566 22
0567 02
0568 3C
0569 37
056A 2A
056B 76
056C 50
056D 19
056E E4
056F 26
0570 73
0571 8E
0572 64
0573 C4
0574 E2
0575 67
0576 BD
0577 C5
0578 FC
0579 A5
057A 04
057B 69
057C FA
057D 52
057E 80
057F 81
0580 6B
0581 A2
0582 7D
0583 6C
0584 E0
0585 C4
0586 C9
0587 40
0588 92
0589 E1
058A 30
058B 51
058C 30
058D 38
058E C5
058F BC
0590 B5
0591 3A
0592 45
0593 91
0594 B3
0595 1E
0596 87
0597 4C
0598 45
0599 0E
059A 94
059B A7
059C D6
059D 5D
059E 8D
059F 19
05A0 73
05A1 4C
05A2 E9
05A3 25
05A4 CD
05A5 0C
05A6 30
05A7 CE
05A8 9C
05A9 A6
05AA 3C
05AB 68
05AC 47
05AD 5B
05AE 5A
05AF 2D
05B0 17
05B1 62
05B2 27
05B3 2C
05B4 9F
05B5 EA
05B6 FC
05B7 C2
05B8 4C
05B9 7C
05BA 3D
05BB 48
05BC BE
05BD 67
05BE B8
05BF F9
05C0 5A
05C1 5F
05C2 93
05C3 70
05C4 2B
05C5 13
05C6 74
05C7 C4
05C8 0C
05C9 81
05CA 02
05CB A8
05CC C8
05CD 12
05CE BC
05CF 23
05D0 2E
05D1 97
05D2 55
05D3 0C
05D4 B4
05D5 8C
05D6 82
05D7 33
05D8 41
05D9 BD
05DA 46
05DB C0
05DC 8E
05DD E1
05DE C9
05DF 2D
05E0 1F
05E1 2F
05E2 71
05E3 75
05E4 84
05E5 AD
05E6 19
05E7 22
05E8 7A
05E9 9E
05EA 0A
05EB 70
05EC 5A
05ED 86
05EE 13
05EF 3D
05F0 04
05F1 FD
05F2 42
05F3 D1
05F4 44
05F5 C8
05F6 AD
05F7 0E
05F8 5A
05F9 4F
05FA 28
05FB AC
05FC 68
05FD CD
05FE 96
05FF 7B
0600 69
0601 23
0602 1B
0603 20
0604 1E
0605 75
0606 5C
0607 04
0608 D0
0609 CD
060A 69
060B AD
060C EF
060D 97
060E 07
060F 1D
0610 EA
0611 BC
0612 4C
0613 48
0614 E3
0615 D3
0616 BA
0617 75
0618 7E
0619 65
061A 2B
061B B1
061C FC
061D FF
061E 6B
061F 28
0620 A0
0621 D8
0622 B4
0623 2B
0624 FA
0625 DD
0626 3B
0627 DE
0628 2A
0629 6F
062A 80
062B F8
062C 04
062D 54
062E 65
062F C4
0630 CF
0631 C5
0632 B3
0633 2A
0634 71
0635 AA
0636 F7
0637 41
0638 2E
0639 97
063A 9A
063B 89
063C EF
063D 44
063E B0
063F 61
0640 C3
0641 80
0642 B4
0643 EB
0644 25
0645 33
0646 AC
0647 A9
0648 7B
0649 0F
064A EA
064B 92
064C E1
064D BF
064E A4
064F BD
0650 FD
0651 8D
0652 FF
0653 2E
0654 C0
0655 55
0656 B6
0657 EC
0658 A1
0659 6D
065A BB
065B B8
065C 47
065D 8E
065E 5E
065F E2
0660 AF
0661 AC
0662 E3
0663 0C
0664 EB
0665 D6
0666 E0
0667 9E
0668 9E
0669 47
066A C6
066B 08
066C 6F
066D 0F
066E A4
066F BD
0670 20
0671 43
0672 DF
0673 A2
0674 CE
0675 F1
0676 FD
0677 2B
0678 83
0679 9A
067A 1C
067B E9
067C 9F
067D 93
067E AC
067F 8B
0680 E1
0681 ED
0682 FC
0683 C6
0684 4C
0685 F6
0686 E2
0687 BD
0688 38
0689 AA
068A AD
068B 82
068C 37
068D 43
068E 5D
068F AB
0690 79
0691 96
0692 C3
0693 F1
0694 63
0695 09
0696 3A
0697 0D
0698 1F
0699 90
069A B7
069B A8
069C AD
069D BF
069E E0
069F 1B
06A0 19
06A1 9A
06A2 F0
06A3 C0
06A4 30
06A5 38
06A6 09
06A7 97
06A8 F9
06A9 C2
06AA C9
06AB 5B
06AC BE
06AD 1E
06AE 22
06AF 0A
06B0 70
06B1 1A
06B2 D3
06B3 B4
06B4 A2
06B5 5F
06B6 9F
06B7 F5
06B8 7E
06B9 93
06BA 53
06BB F4
06BC 19
06BD 40
06BE 5F
06BF 2F
06C0 9C
06C1 97
06C2 95
06C3 DD
06C4 25
06C5 9C
06C6 58
06C7 05
06C8 2A
06C9 5F
06CA B2
06CB 31
06CC 5D
06CD 87
06CE EA
06CF 33
06D0 DC
06D1 88
06D2 30
06D3 38
06D4 7F
06D5 CD
06D6 23
06D7 D7
06D8 89
06D9 47
06DA 63
06DB 36
06DC A1
06DD 6B
06DE 7E
06DF 2F
06E0 CC
06E1 2C
06E2 2B
06E3 97
06E4 E7
06E5 BD
06E6 46
06E7 74
06E8 51
06E9 80
06EA 1D
06EB 57
06EC 85
06ED C0
06EE CE
06EF 00
06F0 7B
06F1 B5
06F2 25
06F3 69
06F4 06
06F5 F8
06F6 D5
06F7 AB
06F8 93
06F9 3F
06FA 11
06FB 52
06FC 2F
06FD EC
06FE 24
06FF 2E
0700 E0
0701 7F
0702 64
0703 94
0704 B6
0705 0A
0706 41
0707 E9
0708 0B
0709 08
070A AC
070B 76
070C 29
070D E8
070E D8
070F 42
0710 B9
0711 13
0712 85
0713 47
0714 2F
0715 3D
0716 12
0717 92
0718 A0
0719 A5
071A B6
071B CC
071C A0
071D F1
071E C2
071F EA
0720 EC
0721 E2
0722 8D
0723 54
0724 C7
0725 61
0726 BA
0727 93
0728 93
0729 19
072A 63
072B 21
072C 57
072D 6B
072E B8
072F 8E
0730 9E
0731 77
0732 E1
0733 A4
0734 87
0735 89
0736 5B
0737 52
0738 50
0739 21
073A 0F
073B 16
073C A5
073D 35
073E 8A
073F 5F
0740 F0
0741 2A
0742 F4
0743 64
0744 AF
0745 8B
0746 74
0747 06
0748 17
0749 7A
074A 51
074B 29
074C BC
074D 57
074E B3
074F D7
0750 BB
0751 77
0752 3A
0753 43
0754 FF
0755 28
0756 74
0757 6E
0758 F0
0759 FD
075A 1C
075B 51
075C 23
075D 40
075E 1F
075F B7
0760 B2
0761 C7
0762 13
0763 B1
0764 ED
0765 18
0766 9E
0767 D5
0768 C8
0769 73
076A 37
076B C4
076C AA
076D 11
076E 2B
076F F0
0770 54
0771 AC
0772 25
0773 AC
0774 37
0775 6C
0776 40
0777 CA
0778 3F
0779 77
077A A2
077B 82
077C 11
077D 35
077E B4
077F DF
0780 1D
0781 C7
0782 2A
0783 96
0784 72
0785 A3
0786 EC
0787 A7
0788 44
0789 24
078A 02
078B DE
078C 03
078D 78
078E DA
078F D5
0790 89
0791 11
0792 21
0793 4D
0794 08
0795 D3
0796 82
0797 E7
0798 11
0799 0D
079A 45
079B 9A
079C 61
079D 3E
079E 9E
079F 16
07A0 9B
07A1 7D
07A2 1D
07A3 37
07A4 46
07A5 5B
07A6 7E
07A7 D6
07A8 B9
07A9 44
07AA 55
07AB EA
07AC 2F
07AD FE
07AE 72
07AF 16
07B0 6D
07B1 C5
07B2 83
07B3 81
07B4 65
07B5 E9
07B6 F0
07B7 BC
07B8 51
07B9 D6
07BA C5
07BB 79
07BC 52
07BD 8A
07BE 22
07BF A7
07C0 40
07C1 36
07C2 8D
07C3 3C
07C4 29
07C5 88
07C6 3D
07C7 57
07C8 4F
07C9 3E
07CA 4F
07CB A4
07CC F1
07CD 8B
07CE 30
07CF 96
07D0 31
07D1 CF
07D2 31
07D3 BD
07D4 4A
07D5 D0
07D6 2B
07D7 26
07D8 1C
07D9 84
07DA D9
07DB 0A
07DC 92
07DD BF
07DE FC
07DF 0D
07E0 22
07E1 D3
07E2 71
07E3 51
07E4 6B
07E5 52
07E6 1F
07E7 46
07E8 E9
07E9 AE
07EA 32
07EB 4A
07EC 6E
07ED 04
07EE D1
07EF 98
07F0 F3
07F1 98
07F2 2B
07F3 03
07F4 2A
07F5 49
07F6 27
07F7 4F
07F8 5C
07F9 CC
07FA 8A
07FB 2F
07FC 49
07FD B4
07FE 87
07FF E1
0800 16
0801 26
0802 1B
0803 ED
0804 DB
0805 3F
0806 4D
0807 56
0808 96
0809 95
080A C5
080B 08
080C 20
080D 56
080E EA
080F 5F
0810 F9
0811 61
0812 21
0813 08
0814 10
0815 AA
0816 D3
0817 95
0818 CF
0819 87
081A 4C
081B 1F
081C A8
081D 09
081E 6B
081F 77
0820 70
0821 B0
0822 37
0823 FB
0824 B3
0825 56
0826 DB
0827 6D
0828 F9
0829 A5
082A 57
082B C0
082C 18
082D 52
082E 86
082F 20
0830 F6
0831 88
0832 2B
0833 24
0834 82
0835 C9
0836 A2
0837 0B
0838 AA
0839 2C
083A D3
083B 0B
083C 75
083D 54
083E DA
083F 84
0840 29
0841 01
0842 09
0843 DC
0844 07
0845 64
0846 B8
0847 6D
0848 7E
0849 B9
084A 93
084B FB
084C 4B
084D 40
084E E9
084F 69
0850 3C
0851 AA
0852 2C
0853 86
0854 5D
0855 DB
0856 DF
0857 F4
0858 EB
0859 CE
085A 3F
085B 99
085C 3F
085D 5A
085E 9B
085F BF
0860 6B
0861 9D
0862 5D
0863 AE
0864 63
0865 94
0866 AB
0867 E4
0868 B6
0869 A9
086A F4
086B 65
086C FB
086D 9C
086E FE
086F 0D
0870 EB
0871 C7
0872 17
0873 F8
0874 73
0875 C8
0876 38
0877 5D
0878 C3
0879 FB
087A 30
087B 6D
087C 76
087D DE
087E 13
087F B1
0880 ED
0881 8F
0882 C2
0883 11
0884 9B
0885 16
0886 57
0887 CD
0888 5C
0889 79
088A 85
088B 69
088C 4C
088D 7C
088E BA
088F 33
0890 8B
0891 A6
0892 D0
0893 0E
0894 61
0895 43
0896 6E
0897 77
0898 54
0899 56
089A 16
089B 29
089C BD
089D C4
089E 4E
089F 20
08A0 FD
08A1 66
08A2 0E
08A3 10
08A4 50
08A5 11
08A6 89
08A7 29
08A8 06
08A9 C1
08AA 0B
08AB 68
08AC 79
08AD B2
08AE FE
08AF 38
08B0 22
08B1 BA
08B2 B7
08B3 A0
08B4 4D
08B5 07
08B6 2F
08B7 48
08B8 AD
08B9 DF
08BA AC
08BB ED
08BC 5A
08BD 6C
08BE 46
08BF CD
08C0 58
08C1 30
08C2 2A
08C3 87
08C4 97
08C5 73
08C6 F3
08C7 D5
08C8 5F
08C9 3F
08CA AE
08CB AD
08CC 10
08CD 21
08CE C0
08CF F8
08D0 21
08D1 73
08D2 6C
08D3 58
08D4 5F
08D5 CC
08D6 03
08D7 2C
08D8 5A
08D9 B5
08DA 26
08DB 9D
08DC 15
08DD D3
08DE 8A
08DF 0C
08E0 AC
08E1 0B
08E2 B0
08E3 AB
08E4 76
08E5 0B
08E6 36
08E7 DB
08E8 6C
08E9 18
08EA FB
08EB 68
08EC 92
08ED EF
08EE 7D
08EF 09
08F0 FA
08F1 A4
08F2 06
08F3 27
08F4 39
08F5 02
08F6 86
08F7 9E
08F8 D5
08F9 82
08FA C0
08FB D5
08FC 83
08FD 7F
08FE FB
08FF DB
0900 49
0901 72
0902 46
0903 DC
0904 D9
0905 63
0906 C7
0907 40
0908 48
0909 B2
090A F1
090B 24
090C 82
090D 9B
090E 70
090F 6E
0910 28
0911 5B
0912 3E
0913 80
0914 08
0915 1A
0916 93
0917 02
0918 42
0919 6C
091A CB
091B A4
091C C7
091D 1A
091E 35
091F BD
0920 42
0921 96
0922 D2
0923 FC
0924 C4
0925 B8
0926 53
0927 05
0928 E7
0929 14
092A 24
092B 7A
092C 3A
092D 38
092E 5D
092F 92
0930 D2
0931 A6
0932 60
0933 53
0934 F6
0935 9F
0936 70
0937 88
0938 D3
0939 B7
093A E7
093B 3F
093C BD
093D FA
093E 23
093F 06
0940 EA
0941 91
0942 DE
0943 4B
0944 9F
0945 DB
0946 E3
0947 9D
0948 87
0949 7C
094A AA
094B 13
094C 35
094D 8A
094E 8F
094F 13
0950 FC
0951 1E
0952 80
0953 7D
0954 3C
0955 DA
0956 57
0957 DA
0958 52
0959 0D
095A 69
095B 49
095C 0E
095D C4
095E D0
095F FC
0960 BD
0961 ED
0962 94
0963 3A
0964 93
0965 8F
0966 A9
0967 8B
0968 37
0969 7B
096A A7
096B 80
096C 66
096D 3A
096E 5E
096F 5E
0970 6D
0971 9B
0972 C7
0973 75
0974 2B
0975 E0
0976 DC
0977 CB
0978 CC
0979 2F
097A D3
097B 7A
097C 37
097D E5
097E 85
097F CA
0980 EF
0981 C5
0982 5F
0983 9E
0984 08
0985 A6
0986 F4
0987 3F
0988 63
0989 8C
098A B0
098B A3
098C AD
098D 47
098E 98
098F 8D
0990 3D
0991 46
0992 57
0993 B7
0994 90
0995 29
0996 50
0997 AD
0998 2A
0999 29
099A 62
099B 66
099C 55
099D FE
099E 08
099F F5
09A0 B1
09A1 9F
09A2 F6
09A3 3E
09A4 7D
09A5 41
09A6 70
09A7 39
09A8 90
09A9 8E
09AA 12
09AB 3C
09AC 73
09AD 51
09AE CA
09AF 97
09B0 99
09B1 91
09B2 C6
09B3 C3
09B4 88
09B5 5E
09B6 D2
09B7 A7
09B8 5E
09B9 0F
09BA DE
09BB 86
09BC 0B
09BD D0
09BE B5
09BF EF
09C0 B6
09C1 08
09C2 CF
09C3 E3
09C4 96
09C5 68
09C6 82
09C7 46
09C8 CA
09C9 F4
09CA C3
09CB 35
09CC 43
09CD 81
09CE AC
09CF 48
09D0 DA
09D1 76
09D2 40
09D3 50
09D4 F0
09D5 A9
09D6 6C
09D7 57
09D8 CB
09D9 E2
09DA A5
09DB CA
09DC B5
09DD 3B
09DE A9
09DF 09
09E0 5B
09E1 28
09E2 41
09E3 99
09E4 17
09E5 70
09E6 D4
09E7 10
09E8 CC
09E9 65
09EA FC
09EB D5
09EC FC
09ED DA
09EE CD
09EF C8
09F0 09
09F1 D8
09F2 F4
09F3 6F
09F4 08
09F5 4F
09F6 51
09F7 E3
09F8 69
09F9 BF
09FA 98
09FB CF
09FC D5
09FD 7D
09FE E4
09FF A2
0A00 03
0A01 6D
0A02 1D
0A03 A2
0A04 3C
0A05 54
0A06 B4
0A07 50
0A08 72
0A09 A1
0A0A 61
0A0B AE
0A0C 17
0A0D 88
0A0E E4
0A0F 66
0A10 F2
0A11 DC
0A12 F7
0A13 21
0A14 50
0A15 EF
0A16 CA
0A17 D9
0A18 54
0A19 EC
0A1A 14
0A1B 33
0A1C 65
0A1D DC
0A1E A6
0A1F B1
0A20 0F
0A21 60
0A22 FD
0A23 6D
0A24 97
0A25 37
0A26 15
0A27 BB
0A28 09
0A29 2C
0A2A 91
0A2B 8C
0A2C 16
0A2D 6B
0A2E 20
0A2F 13
0A30 77
0A31 03
0A32 7B
0A33 73
0A34 AD
0A35 95
0A36 9C
0A37 54
0A38 DB
0A39 3E
0A3A EB
0A3B F4
0A3C 4D
0A3D D0
0A3E 8C
0A3F 1E
0A40 78
0A41 3D
0A42 9F
0A43 A0
0A44 FC
0A45 B6
0A46 7B
0A47 15
0A48 F7
0A49 BB
0A4A 39
0A4B E0
0A4C CE
0A4D 6A
0A4E 17
0A4F A2
0A50 09
0A51 3E
0A52 3E
0A53 25
0A54 FC
0A55 AD
0A56 28
0A57 25
0A58 C7
0A59 01
0A5A A0
0A5B C9
0A5C AE
0A5D 4A
0A5E DF
0A5F 60
0A60 78
0A61 FC
0A62 29
0A63 8D
0A64 C3
0A65 12
0A66 94
0A67 B7
0A68 6B
0A69 6C
0A6A 46
0A6B 78
0A6C 56
0A6D 13
0A6E 3B
0A6F 7F
0A70 DB
0A71 03
0A72 89
0A73 6D
0A74 EF
0A75 22
0A76 D7
0A77 29
0A78 70
0A79 41
0A7A C6
0A7B AB
0A7C 2E
0A7D B7
0A7E CB
0A7F 21
0A80 DC
0A81 FC
0A82 D6
0A83 79
0A84 4D
0A85 D0
0A86 AE
0A87 24
0A88 92
0A89 DF
0A8A 0A
0A8B 72
0A8C 5A
0A8D A4
0A8E ED
0A8F D3
0A90 43
0A91 53
0A92 A2
0A93 D2
0A94 21
0A95 FC
0A96 E6
0A97 79
0A98 F1
0A99 BE
0A9A 0A
0A9B 7B
0A9C 69
0A9D 24
0A9E 4B
0A9F 53
0AA0 42
0AA1 CB
0AA2 7E
0AA3 0A
0AA4 B9
0AA5 57
0AA6 9C
0AA7 CB
0AA8 A8
0AA9 E1
0AAA 0F
0AAB B0
0AAC 8F
0AAD D7
0AAE 42
0AAF 85
0AB0 0B
0AB1 79
0AB2 40
0AB3 DA
0AB4 1D
0AB5 89
0AB6 D6
0AB7 14
0AB8 8F
0AB9 3E
0ABA 44
0ABB 46
0ABC A7
0ABD EA
0ABE 2C
0ABF 93
0AC0 2B
0AC1 EF
0AC2 70
0AC3 64
0AC4 D8
0AC5 85
0AC6 0D
0AC7 31
0AC8 AC
0AC9 ED
0ACA F7
0ACB D7
0ACC D2
0ACD 56
0ACE 9F
0ACF 44
0AD0 33
0AD1 98
0AD2 3B
0AD3 F7
0AD4 C9
0AD5 41
0AD6 25
0AD7 86
0AD8 E6
0AD9 5B
0ADA 81
0ADB E3
0ADC 9A
0ADD 8E
0ADE 3F
0ADF CA
0AE0 76
0AE1 3E
0AE2 59
0AE3 6C
0AE4 7F
0AE5 97
0AE6 E5
0AE7 97
0AE8 B2
0AE9 80
0AEA EF
0AEB FB
0AEC A1
0AED 0B
0AEE FA
0AEF CA
0AF0 FB
0AF1 9E
0AF2 85
0AF3 6A
0AF4 86
0AF5 0C
0AF6 B5
0AF7 E3
0AF8 CE
0AF9 18
0AFA B2
0AFB E2
0AFC E4
0AFD E3
0AFE 3D
0AFF 86
0B00 2E
0B01 82
0B02 50
0B03 A1
0B04 6A
0B05 11
0B06 23
0B07 5A
0B08 51
0B09 C2
0B0A 02
0B0B 77
0B0C 97
0B0D 9A
0B0E 3B
0B0F EF
0B10 49
0B11 1B
0B12 81
0B13 CC
0B14 5C
0B15 37
0B16 ED
0B17 D4
0B18 1C
0B19 35
0B1A 9C
0B1B 2D
0B1C A1
0B1D 6B
0B1E 31
0B1F 5A
0B20 5B
0B21 29
0B22 24
0B23 79
0B24 59
0B25 F7
0B26 03
0B27 EE
0B28 50
0B29 ED
0B2A 7C
0B2B 6F
0B2C 09
0B2D C1
0B2E D0
0B2F 81
0B30 1C
0B31 E5
0B32 28
0B33 90
0B34 DC
0B35 84
0B36 00
0B37 A6
0B38 C8
0B39 39
0B3A 80
0B3B A7
0B3C B1
0B3D C6
0B3E 9C
0B3F CF
0B40 A9
0B41 59
0B42 96
0B43 2E
0B44 B0
0B45 72
0B46 F1
0B47 38
0B48 86
0B49 D2
0B4A 58
0B4B B4
0B4C 1C
0B4D 17
0B4E EF
0B4F 16
0B50 A1
0B51 B7
0B52 32
0B53 07
0B54 94
0B55 CF
0B56 A3
0B57 D3
0B58 AF
0B59 79
0B5A A6
0B5B 13
0B5C AC
0B5D 9D
0B5E C9
0B5F 21
0B60 A9
0B61 E2
0B62 3B
0B63 80
0B64 24
0B65 9A
0B66 EB
0B67 AF
0B68 05
0B69 FF
0B6A 9F
0B6B C4
0B6C DE
0B6D AE
0B6E 20
0B6F 14
0B70 CA
0B71 FE
0B72 5A
0B73 89
0B74 D5
0B75 29
0B76 5F
0B77 68
0B78 0E
0B79 E6
0B7A F7
0B7B 5F
0B7C 61
0B7D A2
0B7E 00
0B7F BE
0B80 F0
0B81 BE
0B82 4A
0B83 7F
0B84 94
0B85 7D
0B86 40
0B87 72
0B88 4E
0B89 AC
0B8A A6
0B8B CD
0B8C DA
0B8D 85
0B8E F1
0B8F 2B
0B90 32
0B91 E6
0B92 7A
0B93 DC
0B94 97
0B95 59
0B96 63
0B97 2D
0B98 E1
0B99 72
0B9A 03
0B9B F9
0B9C 56
0B9D 9A
0B9E E0
0B9F 28
0BA0 D4
0BA1 1C
0BA2 61
0BA3 20
0BA4 52
0BA5 94
0BA6 4B
0BA7 24
0BA8 0C
0BA9 C5
0BAA D0
0BAB 7F
0BAC 69
0BAD F6
0BAE 1B
0BAF 24
0BB0 AF
0BB1 C6
0BB2 9F
0BB3 9F
0BB4 6C
0BB5 A2
0BB6 DD
0BB7 CD
0BB8 EB
0BB9 6D
0BBA 20
0BBB 2A
0BBC 4E
0BBD 81
0BBE 55
0BBF 4C
0BC0 42
0BC1 21
0BC2 23
0BC3 DE
0BC4 B3
0BC5 97
0BC6 F3
0BC7 C2
0BC8 15
0BC9 7B
0BCA EB
0BCB 1F
0BCC 86
0BCD 21
0BCE 4F
0BCF D3
0BD0 21
0BD1 D3
0BD2 BC
0BD3 5A
0BD4 3B
0BD5 59
0BD6 88
0BD7 C8
0BD8 65
0BD9 25
0BDA BA
0BDB 1D
0BDC 5A
0BDD E7
0BDE 3A
0BDF 45
0BE0 93
0BE1 F2
0BE2 EB
0BE3 C3
0BE4 54
0BE5 B9
0BE6 24
0BE7 5F
0BE8 DB
0BE9 FB
0BEA 2F
0BEB 75
0BEC 1D
0BED DD
0BEE A6
0BEF CD
0BF0 32
0BF1 C1
0BF2 B9
0BF3 DF
0BF4 65
0BF5 A5
0BF6 86
0BF7 E0
0BF8 13
0BF9 8B
0BFA 4C
0BFB 26
0BFC DF
0BFD 80
0BFE C2
0BFF 6C
0C00 00
0C01 4F
0C02 F2
0C03 6E
0C04 4B
0C05 36
0C06 17
0C07 ED
0C08 4E
0C09 DF
0C0A F7
0C0B 92
0C0C 64
0C0D 2D
0C0E 69
0C0F 04
0C10 22
0C11 37
0C12 A7
0C13 8D
0C14 1A
0C15 F7
0C16 FF
0C17 5F
0C18 DF
0C19 0D
0C1A 14
0C1B 5A
0C1C 8C
0C1D 0D
0C1E 39
0C1F 78
0C20 63
0C21 BD
0C22 D2
0C23 10
0C24 9A
0C25 ED
0C26 D6
0C27 B9
0C28 71
0C29 FE
0C2A 11
0C2B 0B
0C2C 03
0C2D A3
0C2E B6
0C2F 75
0C30 C1
0C31 A3
0C32 B5
0C33 08
0C34 55
0C35 CB
0C36 D2
0C37 55
0C38 9A
0C39 F8
0C3A 82
0C3B C8
0C3C 55
0C3D 98
0C3E DB
0C3F 96
0C40 78
0C41 C0
0C42 07
0C43 79
0C44 8F
0C45 42
0C46 F6
0C47 F2
0C48 F6
0C49 19
0C4A 10
0C4B A0
0C4C D4
0C4D A2
0C4E 80
0C4F E3
0C50 27
0C51 8C
0C52 02
0C53 D8
0C54 52
0C55 B2
0C56 70
0C57 AC
0C58 09
0C59 63
0C5A C1
0C5B C4
0C5C 75
0C5D 39
0C5E EA
0C5F BD
0C60 0F
0C61 54
0C62 1E
0C63 FB
0C64 FF
0C65 20
0C66 A1
0C67 9E
0C68 36
0C69 53
0C6A 1B
0C6B 6F
0C6C 7E
0C6D C8
0C6E F8
0C6F 24
0C70 A9
0C71 2B
0C72 D1
0C73 84
0C74 8C
0C75 CC
0C76 05
0C77 B0
0C78 3D
0C79 9D
0C7A 88
0C7B A5
0C7C 5B
0C7D A0
0C7E 7B
0C7F 49
0C80 B5
0C81 3B
0C82 88
0C83 A5
0C84 72
0C85 1B
0C86 8F
0C87 D9
0C88 65
0C89 4B
0C8A 90
0C8B 02
0C8C C7
0C8D 17
0C8E 39
0C8F 87
0C90 0B
0C91 AD
0C92 B0
0C93 BE
0C94 D3
0C95 4F
0C96 51
0C97 08
0C98 8E
0C99 29
0C9A 49
0C9B 20
0C9C A3
0C9D 14
0C9E 33
0C9F 64
0CA0 25
0CA1 E6
0CA2 7E
0CA3 34
0CA4 19
0CA5 5F
0CA6 72
0CA7 66
0CA8 7B
0CA9 0B
0CAA A4
0CAB 26
0CAC 97
0CAD 60
0CAE 07
0CAF 97
0CB0 F6
0CB1 EC
0CB2 6B
0CB3 2B
0CB4 38
0CB5 59
0CB6 53
0CB7 95
0CB8 06
0CB9 7B
0CBA 53
0CBB 1C
0CBC 6C
0CBD E9
0CBE E0
0CBF D7
0CC0 D4
0CC1 8C
0CC2 95
0CC3 C5
0CC4 9F
0CC5 2C
0CC6 C4
0CC7 29
0CC8 C5
0CC9 F3
0CCA AA
0CCB B8
0CCC 89
0CCD 01
0CCE FF
0CCF 2C
0CD0 FA
0CD1 47
0CD2 FC
0CD3 31
0CD4 B3
0CD5 8E
0CD6 3A
0CD7 B0
0CD8 F3
0CD9 BB
0CDA 02
0CDB FA
0CDC E5
0CDD 6E
0CDE 2C
0CDF 54
0CE0 7D
0CE1 73
0CE2 94
0CE3 07
0CE4 EF
0CE5 1A
0CE6 19
0CE7 D8
0CE8 FD
0CE9 43
0CEA BC
0CEB 1D
0CEC BC
0CED FC
0CEE FC
0CEF D8
0CF0 2F
0CF1 C1
0CF2 A4
0CF3 50
0CF4 21
0CF5 5F
0CF6 6F
0CF7 69
0CF8 02
0CF9 8E
0CFA CC
0CFB AB
0CFC 74
0CFD B3
0CFE F9
0CFF 5E
0D00 FA
0D01 DB
0D02 0A
0D03 ED
0D04 21
0D05 4A
0D06 0D
0D07 C5
0D08 22
0D09 BE
0D0A 1A
0D0B D8
0D0C 47
0D0D DB
0D0E 9B
0D0F 0D
0D10 4B
0D11 0C
0D12 6F
0D13 82
0D14 4A
0D15 45
0D16 CF
0D17 BC
0D18 F3
0D19 28
0D1A C9
0D1B FC
0D1C 4C
0D1D DA
0D1E 58
0D1F 9A
0D20 A1
0D21 42
0D22 2F
0D23 15
0D24 E2
0D25 82
0D26 BE
0D27 F5
0D28 41
0D29 BF
0D2A 20
0D2B 3D
0D2C A4
0D2D FB
0D2E 1E
0D2F 4E
0D30 4E
0D31 62
0D32 AE
0D33 5C
0D34 29
0D35 F1
0D36 BB
0D37 BB
0D38 71
0D39 76
0D3A C2
0D3B DD
0D3C 7E
0D3D EE
0D3E E2
0D3F 03
0D40 63
0D41 50
0D42 8F
0D43 4F
0D44 3E
0D45 88
0D46 0F
0D47 A0
0D48 D1
0D49 4A
0D4A 4D
0D4B 93
0D4C D2
0D4D A6
0D4E 0F
0D4F 2C
0D50 16
0D51 D6
0D52 1B
0D53 6D
0D54 EB
0D55 E4
0D56 9B
0D57 0D
0D58 56
0D59 41
0D5A 1E
0D5B 8B
0D5C F4
0D5D C7
0D5E FD
0D5F 97
0D60 AD
0D61 11
0D62 77
0D63 D3
0D64 23
0D65 54
0D66 06
0D67 5B
0D68 AA
0D69 5D
0D6A C7
0D6B C3
0D6C 2E
0D6D 56
0D6E 00
0D6F 1A
0D70 45
0D71 A2
0D72 31
0D73 59
0D74 63
0D75 84
0D76 B7
0D77 C2
0D78 D4
0D79 27
0D7A A8
0D7B E3
0D7C E7
0D7D C3
0D7E DC
0D7F 89
0D80 0E
0D81 C9
0D82 6F
0D83 BE
0D84 4C
0D85 48
0D86 8A
0D87 3C
0D88 D8
0D89 33
0D8A 88
0D8B 64
0D8C 8E
0D8D A2
0D8E E9
0D8F B6
0D90 F9
0D91 DF
0D92 9D
0D93 B9
0D94 20
0D95 7C
0D96 E1
0D97 C5
0D98 3E
0D99 B5
0D9A E4
0D9B 75
0D9C BA
0D9D C7
0D9E 97
0D9F AD
0DA0 8B
0DA1 B2
0DA2 3C
0DA3 5B
0DA4 FE
0DA5 9E
0DA6 8B
0DA7 E4
0DA8 24
0DA9 FA
0DAA 30
0DAB 95
0DAC 4F
0DAD 0D
0DAE C0
0DAF 76
0DB0 DD
0DB1 06
0DB2 95
0DB3 BB
0DB4 01
0DB5 E6
0DB6 D0
0DB7 29
0DB8 52
0DB9 0D
0DBA AA
0DBB AD
0DBC 59
0DBD 07
0DBE 09
0DBF 77
0DC0 90
0DC1 21
0DC2 BC
0DC3 5B
0DC4 45
0DC5 41
0DC6 59
0DC7 F9
0DC8 7C
0DC9 9F
0DCA 43
0DCB 07
0DCC F1
0DCD 2A
0DCE 41
0DCF 78
0DD0 A5
0DD1 C2
0DD2 BC
0DD3 36
0DD4 EA
0DD5 56
0DD6 AF
0DD7 54
0DD8 A8
0DD9 F3
0DDA D1
0DDB FD
0DDC 44
0DDD 83
0DDE C6
0DDF 0D
0DE0 5B
0DE1 2B
0DE2 C7
0DE3 DF
0DE4 20
0DE5 E8
0DE6 74
0DE7 AE
0DE8 92
0DE9 73
0DEA 2B
0DEB 4D
0DEC C6
0DED 5F
0DEE B8
0DEF 1C
0DF0 50
0DF1 2C
0DF2 39
0DF3 25
0DF4 C3
0DF5 3A
0DF6 33
0DF7 9C
0DF8 55
0DF9 78
0DFA 46
0DFB 0E
0DFC E5
0DFD 03
0DFE 29
0DFF 70
0E00 24
0E01 B7
0E02 81
0E03 3B
0E04 38
0E05 55
0E06 13
0E07 B4
0E08 C3
0E09 70
0E0A 2A
0E0B C2
0E0C 57
0E0D 66
0E0E 85
0E0F 5A
0E10 95
0E11 68
0E12 85
0E13 1E
0E14 13
0E15 CE
0E16 FE
0E17 2C
0E18 CF
0E19 84
0E1A 09
0E1B D5
0E1C 12
0E1D 42
0E1E DB
0E1F 7E
0E20 5D
0E21 D1
0E22 E5
0E23 A0
0E24 90
0E25 98
0E26 70
0E27 48
0E28 7E
0E29 13
0E2A 66
0E2B 23
0E2C 59
0E2D 91
0E2E 67
0E2F 6F
0E30 ED
0E31 C7
0E32 66
0E33 74
0E34 08
0E35 E8
0E36 57
0E37 F2
0E38 76
0E39 20
0E3A 38
0E3B 0C
0E3C 0A
0E3D 53
0E3E B8
0E3F A6
0E40 63
0E41 BC
0E42 23
0E43 4F
0E44 77
0E45 11
0E46 80
0E47 00
0E48 86
0E49 1A
0E4A 1B
0E4B 30
0E4C CA
0E4D 32
0E4E 1C
0E4F 73
0E50 4C
0E51 D6
0E52 8D
0E53 F3
0E54 A9
0E55 0F
0E56 05
0E57 97
0E58 6C
0E59 B3
0E5A 5B
0E5B C2
0E5C 9F
0E5D 96
0E5E 08
0E5F 9C
0E60 7F
0E61 70
0E62 96
0E63 73
0E64 F9
0E65 86
0E66 51
0E67 8D
0E68 72
0E69 31
0E6A B8
0E6B 05
0E6C A0
0E6D 0C
0E6E 8A
0E6F 05
0E70 D0
0E71 D7
0E72 B5
0E73 B2
0E74 FC
0E75 3F
0E76 7B
0E77 44
0E78 64
0E79 38
0E7A 0D
0E7B 17
0E7C 3F
0E7D C0
0E7E 66
0E7F C7
0E80 99
0E81 74
0E82 6B
0E83 AE
0E84 30
0E85 F3
0E86 D7
0E87 1B
0E88 66
0E89 7B
0E8A D7
0E8B 8D
0E8C 1B
0E8D B9
0E8E 1B
0E8F 69
0E90 9A
0E91 AB
0E92 CC
0E93 ED
0E94 B9
0E95 6E
0E96 57
0E97 F3
0E98 93
0E99 0B
0E9A 16
0E9B E0
0E9C CB
0E9D 33
0E9E 6A
0E9F 0C
0EA0 22
0EA1 42
0EA2 CE
0EA3 BF
0EA4 CE
0EA5 B6
0EA6 D1
0EA7 D8
0EA8 F7
0EA9 EB
0EAA 27
0EAB 64
0EAC C1
0EAD 55
0EAE 96
0EAF 63
0EB0 2C
0EB1 03
0EB2 7A
0EB3 E6
0EB4 C8
0EB5 43
0EB6 85
0EB7 77
0EB8 08
0EB9 59
0EBA 0B
0EBB 77
0EBC 9B
0EBD 83
0EBE C9
0EBF F8
0EC0 8D
0EC1 18
0EC2 E2
0EC3 4E
0EC4 E7
0EC5 8D
0EC6 D2
0EC7 10
0EC8 36
0EC9 79
0ECA EA
0ECB 02
0ECC 14
0ECD BD
0ECE EC
0ECF 14
0ED0 2C
0ED1 12
0ED2 3C
0ED3 37
0ED4 F7
0ED5 F7
0ED6 88
0ED7 E4
0ED8 D4
0ED9 98
0EDA AC
0EDB F7
0EDC B8
0EDD E9
0EDE D5
0EDF E1
0EE0 F9
0EE1 51
0EE2 DC
0EE3 30
0EE4 C1
0EE5 3E
0EE6 9C
0EE7 26
0EE8 A4
0EE9 8C
0EEA 6F
0EEB A8
0EEC 42
0EED 76
0EEE 62
0EEF E7
0EF0 73
0EF1 10
0EF2 58
0EF3 10
0EF4 7B
0EF5 BB
0EF6 46
0EF7 70
0EF8 BC
0EF9 38
0EFA C0
0EFB CC
0EFC 8E
0EFD A0
0EFE 97
0EFF F3
0F00 D3
0F01 44
0F02 24
0F03 BB
0F04 27
0F05 68
0F06 44
0F07 EB
0F08 6B
0F09 B0
0F0A 06
0F0B 92
0F0C 39
0F0D 96
0F0E E9
0F0F 38
0F10 3B
0F11 A5
0F12 DB
0F13 1E
0F14 11
0F15 06
0F16 7D
0F17 E9
0F18 38
0F19 60
0F1A 10
0F1B C0
0F1C EE
0F1D 4E
0F1E C4
0F1F 95
0F20 70
0F21 5C
0F22 F3
0F23 52
0F24 2A
0F25 F6
0F26 26
0F27 BD
0F28 72
0F29 D3
0F2A E2
0F2B AD
0F2C 1D
0F2D BB
0F2E F6
0F2F 17
0F30 C7
0F31 A2
0F32 63
0F33 E2
0F34 B7
0F35 AA
0F36 05
0F37 6A
0F38 09
0F39 96
0F3A EF
0F3B 33
0F3C B9
0F3D E3
0F3E 49
0F3F B9
0F40 25
0F41 C6
0F42 3A
0F43 93
0F44 35
0F45 1E
0F46 A5
0F47 39
0F48 FA
0F49 D5
0F4A E0
0F4B 05
0F4C D2
0F4D F9
0F4E EA
0F4F 84
0F50 FF
0F51 F4
0F52 81
0F53 72
0F54 3D
0F55 65
0F56 49
0F57 69
0F58 E4
0F59 85
0F5A EE
0F5B 21
0F5C B2
0F5D A8
0F5E 87
0F5F 0B
0F60 F1
0F61 B2
0F62 45
0F63 6C
0F64 BE
0F65 3B
0F66 B2
0F67 ED
0F68 32
0F69 4B
0F6A DC
0F6B 71
0F6C 2B
0F6D 76
0F6E 77
0F6F F4
0F70 BF
0F71 61
0F72 AF
0F73 1C
0F74 85
0F75 C4
0F76 B4
0F77 23
0F78 21
0F79 05
0F7A 93
0F7B 7A
0F7C 40
0F7D A9
0F7E EA
0F7F 3A
0F80 E7
0F81 F8
0F82 A1
0F83 05
0F84 7B
0F85 EE
0F86 B6
0F87 00
0F88 C7
0F89 25
0F8A 88
0F8B DF
0F8C E0
0F8D 08
0F8E 63
0F8F 5E
0F90 92
0F91 D2
0F92 BC
0F93 9E
0F94 6F
0F95 5F
0F96 B5
0F97 6C
0F98 E6
0F99 BA
0F9A DA
0F9B 9A
0F9C D3
0F9D 00
0F9E 80
0F9F 41
0FA0 E8
0FA1 EE
0FA2 54
0FA3 C4
0FA4 23
0FA5 E9
0FA6 72
0FA7 09
0FA8 5E
0FA9 FC
0FAA 0F
0FAB 5A
0FAC 26
0FAD 09
0FAE 0B
0FAF B3
0FB0 E8
0FB1 25
0FB2 83
0FB3 89
0FB4 F1
0FB5 6C
0FB6 D6
0FB7 6D
0FB8 7B
0FB9 38
0FBA 2B
0FBB 0E
0FBC A9
0FBD D7
0FBE AC
0FBF DC
0FC0 B2
0FC1 76
0FC2 3B
0FC3 7F
0FC4 0A
0FC5 9D
0FC6 B1
0FC7 A5
0FC8 D0
0FC9 00
0FCA D1
0FCB 92
0FCC A6
0FCD 27
0FCE E8
0FCF 7E
0FD0 5E
0FD1 74
0FD2 E8
0FD3 50
0FD4 68
0FD5 85
0FD6 42
0FD7 95
0FD8 32
0FD9 8C
0FDA B3
0FDB E1
0FDC 79
0FDD A8
0FDE A1
0FDF C9
0FE0 86
0FE1 1B
0FE2 8A
0FE3 4A
0FE4 E2
0FE5 9D
0FE6 1E
0FE7 2B
0FE8 9E
0FE9 69
0FEA 1A
0FEB 15
0FEC FA
0FED 64
0FEE 6A
0FEF F1
0FF0 07
0FF1 77
0FF2 3E
0FF3 05
0FF4 E1
0FF5 C5
0FF6 B1
0FF7 AA
0FF8 D3
0FF9 B5
0FFA 0A
0FFB 89
0FFC D6
0FFD 0F
0FFE 30
0FFF A6
1000 0A
1001 D0
1002 C0
1003 57
1004 00
1005 47
1006 98
1007 6F
1008 EB
1009 B5
100A E9
100B 5F
100C F7
100D B5
100E 47
100F 33
1010 F8
1011 67
1012 3F
1013 72
1014 A1
1015 30
1016 FB
1017 D9
1018 29
1019 C1
101A 45
101B D5
101C 47
101D 90
101E C9
101F B7
1020 55
1021 EC
1022 8A
1023 03
1024 F9
1025 10
1026 8B
1027 88
1028 EE
1029 A4
102A 6F
102B 57
102C 60
102D B9
102E 21
102F 3D
1030 73
1031 8F
1032 FA
1033 81
1034 3A
1035 3C
1036 6B
1037 9F
1038 39
1039 F8
103A 33
103B 57
103C 73
103D 29
103E A5
103F 67
1040 D9
1041 F3
1042 DA
1043 0C
1044 0F
1045 E0
1046 13
1047 97
1048 3B
1049 62
104A 3C
104B 28
104C 40
104D 3E
104E 96
104F 3B
1050 62
1051 94
1052 0D
1053 CF
1054 37
1055 7B
1056 47
1057 3C
1058 96
1059 48
105A 68
105B 4E
105C BC
105D 7A
105E EF
105F D4
1060 5C
1061 F4
1062 07
1063 26
1064 3F
1065 FE
1066 41
1067 72
1068 0D
1069 02
106A A2
106B 08
106C 23
106D ED
106E 24
106F B5
1070 B8
1071 30
1072 A8
1073 45
1074 52
1075 12
1076 B0
1077 D1
1078 0C
1079 7D
107A E0
107B 6E
107C 88
107D 86
107E AD
107F CA
1080 68
1081 3D
1082 ED
1083 C8
1084 8B
1085 6A
1086 03
1087 6D
1088 40
1089 15
108A 00
108B 42
108C D5
108D E3
108E 56
108F 31
1090 6F
1091 FD
1092 1B
1093 3F
1094 81
1095 56
1096 F5
1097 9E
1098 66
1099 AD
109A A1
109B 82
109C 9B
109D 8C
109E 61
109F 74
10A0 66
10A1 B3
10A2 F6
10A3 67
10A4 4A
10A5 DF
10A6 42
10A7 7E
10A8 57
10A9 06
10AA 3D
10AB 69
10AC 43
10AD 81
10AE 83
10AF 97
10B0 30
10B1 3B
10B2 50
10B3 25
10B4 B7
10B5 DB
10B6 B0
10B7 DB
10B8 25
10B9 B1
10BA 15
10BB EC
10BC 19
10BD D3
10BE 65
10BF E9
10C0 C6
10C1 E9
10C2 AD
10C3 EB
10C4 7E
10C5 78
10C6 FC
10C7 8F
10C8 15
10C9 1D
10CA 16
10CB 9C
10CC 14
10CD 6A
10CE 86
10CF 46
10D0 95
10D1 BD
10D2 B4
10D3 87
10D4 CB
10D5 A8
10D6 58
10D7 87
10D8 C7
10D9 06
10DA 1F
10DB 9E
10DC 9C
10DD FB
10DE CB
10DF C7
10E0 EE
10E1 FE
10E2 9E
10E3 AF
10E4 61
10E5 D8
10E6 17
10E7 6E
10E8 54
10E9 A2
10EA CF
10EB 00
10EC 7E
10ED F8
10EE 34
10EF 8E
10F0 8B
10F1 A7
10F2 C5
10F3 DF
10F4 93
10F5 68
10F6 E3
10F7 B9
10F8 4C
10F9 32
10FA 44
10FB E9
10FC 31
10FD A1
10FE 3A
10FF 97
1100 05
1101 6C
1102 2C
1103 F1
1104 A5
1105 2E
1106 8F
1107 51
1108 B6
1109 FC
110A 5E
110B 54
110C F4
110D FC
110E 2F
110F B3
1110 25
1111 47
1112 A8
1113 E4
1114 B3
1115 55
1116 09
1117 F8
1118 9D
1119 F6
111A 0A
111B 6D
111C FB
111D DC
111E 1C
111F 20
1120 00
1121 8A
1122 13
1123 70
1124 DC
1125 8A
1126 81
1127 FE
1128 2B
1129 BD
112A F7
112B 08
112C A8
112D 65
112E 4B
112F 3D
1130 51
1131 10
1132 1F
1133 F0
1134 6E
1135 08
1136 53
1137 50
1138 0C
1139 52
113A 77
113B 1B
113C 8E
113D D7
113E 92
113F 98
1140 10
1141 03
1142 E3
1143 1D
1144 18
1145 2E
1146 4A
1147 22
1148 3F
1149 12
114A 3B
114B AC
114C 34
114D 2B
114E CB
114F 81
1150 4B
1151 95
1152 D5
1153 28
1154 3E
1155 3D
1156 0B
1157 B8
1158 55
1159 FD
115A 3A
115B 23
115C C5
115D E8
115E E0
115F 9F
1160 4C
1161 CE
1162 E1
1163 0E
1164 9A
1165 EF
1166 27
1167 E1
1168 4E
1169 3A
116A EE
116B 99
116C 03
116D E8
116E FF
116F 7C
1170 33
1171 0E
1172 EF
1173 DF
1174 1C
1175 04
1176 34
1177 97
1178 5E
1179 0F
117A AD
117B 6A
117C 0E
117D 52
117E E2
117F F9
1180 E9
1181 2D
1182 31
1183 A9
1184 15
1185 E3
1186 BC
1187 F8
1188 78
1189 DF
118A C1
118B 1F
118C 73
118D 36
118E 64
118F EA
1190 57
1191 52
1192 4B
1193 6E
1194 33
1195 0E
1196 D9
1197 22
1198 36
1199 A4
119A BF
119B FB
119C 1F
119D A8
119E 10
119F 05
11A0 C8
11A1 4A
11A2 08
11A3 BD
11A4 BF
11A5 6E
11A6 64
11A7 55
11A8 B2
11A9 BE
11AA AF
11AB 7B
11AC 63
11AD B5
11AE 09
11AF 05
11B0 3D
11B1 49
11B2 41
11B3 39
11B4 E7
11B5 7E
11B6 3E
11B7 4D
11B8 53
11B9 2D
11BA 5E
11BB 46
11BC C1
11BD 65
11BE 35
11BF 77
11C0 0D
11C1 D6
11C2 B4
11C3 AA
11C4 E9
11C5 D4
11C6 4B
11C7 37
11C8 CB
11C9 96
11CA 6E
11CB 54
11CC FA
11CD CC
11CE C0
11CF 8F
11D0 BD
11D1 37
11D2 05
11D3 55
11D4 AE
11D5 37
11D6 C0
11D7 71
11D8 6B
11D9 F3
11DA 3D
11DB CE
11DC 91
11DD 78
11DE C1
11DF 81
11E0 76
11E1 4E
11E2 94
11E3 FA
11E4 9E
11E5 B6
11E6 2E
11E7 AE
11E8 18
11E9 33
11EA 02
11EB BB
11EC 25
11ED B8
11EE 46
11EF 44
11F0 C2
11F1 CA
11F2 2A
11F3 A8
11F4 3E
11F5 33
11F6 51
11F7 B2
11F8 40
11F9 DA
11FA E8
11FB C3
11FC 96
11FD 32
11FE B9
11FF 09
1200 15
1201 CC
1202 6A
1203 20
1204 6A
1205 C2
1206 40
1207 83
1208 DD
1209 22
120A CC
120B A8
120C 10
120D 0E
120E 62
120F 85
1210 E4
1211 79
1212 10
1213 7F
1214 19
1215 32
1216 04
1217 69
1218 83
1219 FC
121A AD
121B 71
121C 02
121D FC
121E 30
121F 9E
1220 4E
1221 58
1222 7F
1223 07
1224 DC
1225 30
1226 FC
1227 CE
1228 56
1229 4A
122A 56
122B B0
122C 0F
122D 54
122E C1
122F 46
1230 96
1231 36
1232 AD
1233 66
1234 A8
1235 21
1236 21
1237 3F
1238 ED
1239 15
123A 24
123B 01
123C 13
123D 9D
123E DB
123F 28
1240 13
1241 15
1242 10
1243 15
1244 21
1245 C9
1246 94
1247 A5
1248 41
1249 F9
124A A4
124B B1
124C 7F
124D 8D
124E 30
124F 50
1250 68
1251 DA
1252 DB
1253 A0
1254 55
1255 E6
1256 20
1257 E2
1258 7C
1259 BC
125A 50
125B CF
125C AD
125D 73
125E 86
125F 63
1260 48
1261 55
1262 52
1263 8B
1264 FF
1265 5B
1266 4A
1267 A8
1268 14
1269 00
126A 8E
126B CD
126C 50
126D C3
126E 26
126F 38
1270 BD
1271 43
1272 85
1273 0B
1274 E6
1275 BD
1276 A8
1277 83
1278 9B
1279 46
127A 53
127B F8
127C A6
127D 1E
127E 69
127F 7B
1280 4A
1281 62
1282 17
1283 1B
1284 5A
1285 8F
1286 55
1287 BB
1288 6C
1289 40
128A 3A
128B DA
128C 92
128D 75
128E 16
128F 67
1290 F7
1291 AA
1292 F8
1293 58
1294 BD
1295 91
1296 39
1297 43
1298 8C
1299 B8
129A 11
129B 74
129C C5
129D 4D
129E C4
129F 0B
12A0 55
12A1 1E
12A2 58
12A3 21
12A4 79
12A5 B1
12A6 F1
12A7 32
12A8 8B
12A9 61
12AA AE
12AB 02
12AC 9A
12AD DD
12AE 49
12AF 08
12B0 5F
12B1 C2
12B2 81
12B3 56
12B4 9C
12B5 AF
12B6 53
12B7 F5
12B8 F9
12B9 3C
12BA DC
12BB 8E
12BC 82
12BD AB
12BE 84
12BF FC
12C0 59
12C1 DA
12C2 09
12C3 1A
12C4 CC
12C5 BA
12C6 77
12C7 36
12C8 E7
12C9 D0
12CA 4C
12CB 83
12CC EB
12CD 09
12CE 29
12CF 49
12D0 37
12D1 0A
12D2 90
12D3 4C
12D4 BA
12D5 5A
12D6 41
12D7 23
12D8 69
12D9 45
12DA 50
12DB 7E
12DC 0F
12DD 6A
12DE C8
12DF 99
12E0 FE
12E1 98
12E2 26
12E3 9C
12E4 03
12E5 EB
12E6 EF
12E7 09
12E8 0F
12E9 98
12EA 4D
12EB 61
12EC 06
12ED B9
12EE CD
12EF C4
12F0 17
12F1 5B
12F2 80
12F3 17
12F4 0B
12F5 1A
12F6 0A
12F7 D3
12F8 F6
12F9 4D
12FA 0E
12FB EC
12FC 0D
12FD E5
12FE 3A
12FF 29
1300 D4
1301 91
1302 59
1303 5C
1304 AA
1305 B2
1306 02
1307 05
1308 C5
1309 DA
130A 35
130B 8B
130C 90
130D C0
130E 04
130F 92
1310 EB
1311 A8
1312 C0
1313 56
1314 44
1315 4A
1316 F1
1317 EB
1318 D0
1319 A9
131A B2
131B AA
131C EB
131D 4A
131E 0D
131F 9D
1320 43
1321 78
1322 90
1323 EF
1324 4E
1325 31
1326 06
1327 F5
1328 21
1329 FD
132A CE
132B 28
132C 31
132D 6D
132E 4A
132F 32
1330 9F
1331 2E
1332 5E
1333 D2
1334 9D
1335 45
1336 B2
1337 4E
1338 AA
1339 D9
133A 54
133B 29
133C 76
133D B5
133E 48
133F 9E
1340 9C
1341 EE
1342 EC
1343 F6
1344 F0
1345 CD
1346 7D
1347 22
1348 49
1349 40
134A DF
134B BD
134C 82
134D CE
134E 6A
134F 49
1350 E6
1351 1E
1352 EF
1353 DF
1354 52
1355 BF
1356 DB
1357 0B
1358 91
1359 7F
135A 59
135B EE
135C E8
135D 71
135E 6A
135F 83
1360 90
1361 8B
1362 A0
1363 70
1364 19
1365 CD
1366 77
1367 93
1368 6A
1369 D8
136A AC
136B 00
136C 26
136D 69
136E 99
136F 43
1370 87
1371 89
1372 32
1373 01
1374 31
1375 D2
1376 10
1377 73
1378 C7
1379 69
137A 34
137B 40
137C 50
137D 73
137E 8F
137F 05
1380 19
1381 ED
1382 7F
1383 2C
1384 41
1385 72
1386 75
1387 37
1388 D5
1389 89
138A 89
138B 4C
138C 97
138D 4A
138E 47
138F 8E
1390 20
1391 43
1392 0C
1393 45
1394 7A
1395 EF
1396 0C
1397 43
1398 B2
1399 2F
139A AC
139B 9F
139C C5
139D 89
139E 9D
139F B4
13A0 BA
13A1 4C
13A2 91
13A3 02
13A4 94
13A5 85
13A6 97
13A7 B4
13A8 07
13A9 CC
13AA 33
13AB E4
13AC 3A
13AD 67
13AE BA
13AF E9
13B0 1C
13B1 7B
13B2 C1
13B3 A8
13B4 CC
13B5 B1
13B6 B8
13B7 FC
13B8 4A
13B9 9B
13BA 12
13BB 9A
13BC FE
13BD 1E
13BE 85
13BF 29
13C0 61
13C1 48
13C2 65
13C3 BE
13C4 50
13C5 5D
13C6 01
13C7 D4
13C8 C6
13C9 98
13CA 49
13CB 90
13CC 10
13CD 56
13CE A0
13CF D4
13D0 F3
13D1 62
13D2 C3
13D3 B8
13D4 BC
13D5 A7
13D6 65
13D7 5A
13D8 F4
13D9 D3
13DA 3B
13DB DD
13DC 4A
13DD E5
13DE 2A
13DF 39
13E0 AB
13E1 E1
13E2 D3
13E3 D7
13E4 7E
13E5 2A
13E6 F4
13E7 CA
13E8 04
13E9 96
13EA D7
13EB DB
13EC 27
13ED 90
13EE DF
13EF 1D
13F0 3B
13F1 FF
13F2 07
13F3 14
13F4 CE
13F5 81
13F6 2F
13F7 80
13F8 D3
13F9 B8
13FA 7B
13FB 4A
13FC B7
13FD 9E
13FE 6A
13FF E1
1400 30
1401 1F
1402 1A
1403 95
1404 5E
1405 77
1406 3F
1407 85
1408 DB
1409 7B
140A 36
140B 99
140C B4
140D DE
140E 74
140F DB
1410 A4
1411 79
1412 92
1413 3F
1414 13
1415 E6
1416 76
1417 7B
1418 AB
1419 18
141A DD
141B 89
141C 4A
141D 1C
141E A9
141F D6
1420 B4
1421 42
1422 2C
1423 77
1424 A2
1425 C9
1426 06
1427 66
1428 35
1429 91
142A 8D
142B 3F
142C 06
142D 55
142E 44
142F 1F
1430 86
1431 36
1432 07
1433 FB
1434 A9
1435 EC
1436 A3
1437 A0
1438 57
1439 B7
143A 0E
143B D1
143C 7E
143D 15
143E 7B
143F 99
1440 69
1441 9B
1442 44
1443 ED
1444 EB
1445 13
1446 6B
1447 45
1448 70
1449 46
144A C3
144B 5D
144C 73
144D 34
144E CB
144F 85
1450 07
1451 4D
1452 EB
1453 2F
1454 D6
1455 13
1456 3F
1457 B5
1458 5F
1459 89
145A 9F
145B 78
145C 39
145D 37
145E DB
145F DF
1460 A8
1461 6E
1462 0C
1463 B6
1464 61
1465 C8
1466 92
1467 FD
1468 2A
1469 CE
146A EF
146B 4A
146C 1E
146D 0E
146E 0F
146F 54
1470 2F
1471 15
1472 19
1473 D7
1474 68
1475 42
1476 65
1477 7C
1478 A7
1479 CC
147A C9
147B 44
147C 6F
147D 7B
147E 5F
147F 43
1480 28
1481 9D
1482 7B
1483 8E
1484 35
1485 9D
1486 41
1487 D4
1488 DF
1489 E9
148A 0F
148B FA
148C 97
148D 74
148E FB
148F 19
1490 2F
1491 2E
1492 42
1493 67
1494 FB
1495 9A
1496 00
1497 B9
1498 7E
1499 88
149A 48
149B 38
149C D8
149D D3
149E DC
149F 7C
14A0 70
14A1 28
14A2 6D
14A3 58
14A4 2C
14A5 5D
14A6 1F
14A7 9F
14A8 9A
14A9 FD
14AA E6
14AB A1
14AC 4E
14AD D6
14AE FA
14AF EF
14B0 8F
14B1 4A
14B2 5B
14B3 95
14B4 56
14B5 2C
14B6 A1
14B7 DB
14B8 46
14B9 E5
14BA 65
14BB B8
14BC F7
14BD CD
14BE 16
14BF 14
14C0 21
14C1 B8
14C2 EA
14C3 9D
14C4 C7
14C5 20
14C6 38
14C7 9F
14C8 2E
14C9 18
14CA E3
14CB D4
14CC 58
14CD 32
14CE 76
14CF DD
14D0 08
14D1 2E
14D2 A2
14D3 75
14D4 0C
14D5 90
14D6 64
14D7 9F
14D8 8C
14D9 4D
14DA 17
14DB F0
14DC 1F
14DD 6A
14DE C4
14DF 1D
14E0 B3
14E1 9E
14E2 CC
14E3 1F
14E4 ED
14E5 D3
14E6 85
14E7 92
14E8 60
14E9 59
14EA EA
14EB DA
14EC 77
14ED 51
14EE 47
14EF 52
14F0 B9
14F1 AF
14F2 50
14F3 0E
14F4 C0
14F5 9A
14F6 E1
14F7 AF
14F8 2C
14F9 66
14FA 8B
14FB 4C
14FC 69
14FD 92
14FE FA
14FF BA
1500 0A
1501 F4
1502 37
1503 CB
1504 18
1505 53
1506 D7
1507 95
1508 7E
1509 8E
150A 2C
150B 6B
150C D1
150D 21
150E 49
150F F1
1510 B6
1511 1B
1512 8A
1513 79
1514 5D
1515 D0
1516 99
1517 7E
1518 DA
1519 02
151A 1A
151B 71
151C DD
151D 3E
151E 48
151F CA
1520 7C
1521 0B
1522 3E
1523 36
1524 CC
1525 28
1526 52
1527 97
1528 0D
1529 23
152A 90
152B 1C
152C CA
152D 4B
152E 7A
152F 75
1530 83
1531 36
1532 74
1533 24
1534 44
1535 73
1536 D0
1537 3D
1538 15
1539 DC
153A 53
153B 3B
153C 3B
153D 2F
153E 5C
153F 20
1540 EF
1541 65
1542 57
1543 06
1544 A2
1545 BE
1546 B1
1547 24
1548 5C
1549 47
154A 69
154B 71
154C 3C
154D 9B
154E 68
154F F9
1550 D8
1551 00
1552 53
1553 64
1554 D3
1555 58
1556 0D
1557 35
1558 CD
1559 D1
155A 81
155B 5C
155C 33
155D 0E
155E C3
155F EA
1560 C5
1561 36
1562 88
1563 BA
1564 AA
1565 E5
1566 8B
1567 31
1568 F5
1569 42
156A E8
156B C5
156C A5
156D 74
156E 2C
156F 27
1570 DD
1571 8B
1572 73
1573 5E
1574 79
1575 0F
1576 02
1577 86
1578 77
1579 CE
157A DF
157B DE
157C D9
157D 23
157E 93
157F 02
1580 71
1581 13
1582 16
1583 4E
1584 9C
1585 FF
1586 21
1587 7E
1588 D8
1589 5D
158A 4C
158B FF
158C 53
158D 93
158E 2D
158F B1
1590 9C
1591 00
1592 CD
1593 7B
1594 9D
1595 5C
1596 99
1597 77
1598 3A
1599 CA
159A 85
159B D9
159C AD
159D 3F
159E 82
159F B7
15A0 F6
15A1 32
15A2 C1
15A3 C3
15A4 C9
15A5 49
15A6 E6
15A7 18
15A8 67
15A9 D4
15AA 0C
15AB 76
15AC D2
15AD D2
15AE F6
15AF F5
15B0 00
15B1 76
15B2 44
15B3 4A
15B4 31
15B5 9A
15B6 AF
15B7 C0
15B8 BA
15B9 D3
15BA AC
15BB BC
15BC D7
15BD AD
15BE B6
15BF A2
15C0 B9
15C1 BD
15C2 39
15C3 B2
15C4 15
15C5 3F
15C6 46
15C7 9A
15C8 98
15C9 86
15CA 6F
15CB DC
15CC 30
15CD D3
15CE 4B
15CF 07
15D0 4C
15D1 71
15D2 AA
15D3 01
15D4 BB
15D5 EF
15D6 B8
15D7 6F
15D8 E1
15D9 09
15DA 0C
15DB 06
15DC A0
15DD 92
15DE 15
15DF C7
15E0 28
15E1 B8
15E2 4A
15E3 9A
15E4 05
15E5 02
15E6 9F
15E7 1B
15E8 12
15E9 64
15EA E6
15EB C6
15EC E8
15ED AF
15EE 49
15EF 27
15F0 B9
15F1 79
15F2 51
15F3 DD
15F4 C2
15F5 F4
15F6 C6
15F7 8D
15F8 62
15F9 EB
15FA 4E
15FB 34
15FC 00
15FD 0E
15FE 67
15FF 84
1600 BE
1601 27
1602 CA
1603 90
1604 B9
1605 54
1606 7F
1607 C0
1608 C1
1609 2D
160A DE
160B 57
160C CD
160D 9B
160E 22
160F 9A
1610 41
1611 3C
1612 C1
1613 B7
1614 41
1615 58
1616 99
1617 1B
1618 B6
1619 E9
161A FD
161B 08
161C 32
161D 34
161E 1A
161F 82
1620 51
1621 31
1622 64
1623 F8
1624 D6
1625 BA
1626 FD
1627 A8
1628 B2
1629 0D
162A D8
162B 29
162C 62
162D 2B
162E D8
162F 41
1630 51
1631 F0
1632 2D
1633 46
1634 CC
1635 75
1636 4F
1637 0D
1638 F3
1639 AF
163A 82
163B 94
163C F4
163D 68
163E E7
163F 3A
1640 68
1641 C9
1642 C5
1643 11
1644 83
1645 0D
1646 F6
1647 7C
1648 A3
1649 7C
164A 50
164B AC
164C A4
164D 14
164E D7
164F B7
1650 91
1651 C6
1652 EB
1653 AF
1654 45
1655 9E
1656 9A
1657 DA
1658 06
1659 99
165A 83
165B D7
165C 72
165D 8A
165E 96
165F 1D
1660 9E
1661 1E
1662 99
1663 5A
1664 4F
1665 2D
1666 2E
1667 E8
1668 1B
1669 14
166A 51
166B 09
166C 2D
166D 0B
166E 72
166F DA
1670 93
1671 EA
1672 12
1673 27
1674 53
1675 A7
1676 7D
1677 C2
1678 35
1679 B2
167A 6A
167B 24
167C 78
167D 81
167E 1C
167F D5
1680 70
1681 A1
1682 5E
1683 21
1684 A6
1685 29
1686 D0
1687 40
1688 30
1689 27
168A E2
168B 63
168C CD
168D 5B
168E 53
168F 52
1690 78
1691 7B
1692 55
1693 E6
1694 07
1695 AF
1696 98
1697 44
1698 92
1699 22
169A B6
169B BF
169C 98
169D F8
169E 7E
169F 83
16A0 BF
16A1 95
16A2 8F
16A3 4D
16A4 33
16A5 E2
16A6 58
16A7 7F
16A8 C9
16A9 B4
16AA E6
16AB 47
16AC A0
16AD D1
16AE 74
16AF 50
16B0 2D
16B1 A6
16B2 3D
16B3 B1
16B4 67
16B5 C9
16B6 74
16B7 20
16B8 F5
16B9 10
16BA A9
16BB FA
16BC 47
16BD 23
16BE 0F
16BF 75
16C0 5F
16C1 CB
16C2 3E
16C3 00
16C4 17
16C5 F0
16C6 AA
16C7 5A
16C8 57
16C9 D0
16CA E8
16CB AF
16CC 50
16CD 03
16CE 3D
16CF 29
16D0 32
16D1 0C
16D2 C4
16D3 E1
16D4 BC
16D5 C0
16D6 CB
16D7 31
16D8 71
16D9 FC
16DA 50
16DB 48
16DC CA
16DD A2
16DE C8
16DF A3
16E0 C5
16E1 EF
16E2 DF
16E3 D2
16E4 79
16E5 7D
16E6 A9
16E7 E5
16E8 EA
16E9 B6
16EA 40
16EB 58
16EC D1
16ED 90
16EE 2E
16EF F3
16F0 FF
16F1 01
16F2 21
16F3 B9
16F4 1A
16F5 3F
16F6 0A
16F7 2A
16F8 2F
16F9 47
16FA F3
16FB 41
16FC 98
16FD 36
16FE 0D
16FF 1B
1700 07
1701 57
1702 F2
1703 73
1704 93
1705 4B
1706 07
1707 A3
1708 9C
1709 87
170A 5E
170B 3D
170C BB
170D 22
170E 14
170F 39
1710 B8
1711 6E
1712 EE
1713 3A
1714 79
1715 63
1716 7D
1717 84
1718 1D
1719 2E
171A 1E
171B EF
171C 53
171D D5
171E 63
171F C7
1720 D7
1721 90
1722 3F
1723 3B
1724 90
1725 A3
1726 D1
1727 47
1728 CE
1729 E4
172A AC
172B E6
172C D2
172D F1
172E 61
172F FF
1730 55
1731 1D
1732 4D
1733 99
1734 BA
1735 C4
1736 F8
1737 2F
1738 A0
1739 F9
173A 97
173B 74
173C 78
173D F2
173E 3B
173F B4
1740 34
1741 76
1742 E3
1743 BF
1744 93
1745 2E
1746 E7
1747 5E
1748 58
1749 3B
174A 11
174B 21
174C 48
174D 87
174E BE
174F 16
1750 ED
1751 19
1752 20
1753 B8
1754 43
1755 A9
1756 90
1757 20
1758 3E
1759 EE
175A E4
175B 5B
175C 54
175D 9E
175E B3
175F F2
1760 60
1761 5F
1762 ED
1763 C3
1764 2C
1765 B6
1766 C9
1767 75
1768 32
1769 82
176A 77
176B 13
176C 40
176D 32
176E 4F
176F 19
1770 B1
1771 1B
1772 63
1773 C1
1774 64
1775 0A
1776 41
1777 62
1778 16
1779 4D
177A 6D
177B AE
177C E2
177D C4
177E DC
177F 83
1780 BB
1781 11
1782 9D
1783 4D
1784 8D
1785 21
1786 19
1787 57
1788 43
1789 5D
178A 3A
178B 07
178C F8
178D 4D
178E 6E
178F A3
1790 AD
1791 23
1792 17
1793 A4
1794 4A
1795 CF
1796 89
1797 E7
1798 13
1799 33
179A E5
179B 6C
179C 31
179D 9B
179E D3
179F CF
17A0 82
17A1 AC
17A2 09
17A3 02
17A4 CF
17A5 DA
17A6 BC
17A7 70
17A8 09
17A9 9C
17AA 10
17AB 32
17AC 67
17AD 0F
17AE 3A
17AF A8
17B0 7F
17B1 55
17B2 AC
17B3 88
17B4 71
17B5 9E
17B6 55
17B7 D0
17B8 6A
17B9 ED
17BA 6B
17BB 47
17BC F8
17BD 15
17BE 13
17BF 75
17C0 56
17C1 32
17C2 65
17C3 FE
17C4 50
17C5 C6
17C6 C3
17C7 B5
17C8 C8
17C9 E5
17CA 0C
17CB AD
17CC E0
17CD 33
17CE 49
17CF 44
17D0 0A
17D1 6A
17D2 F5
17D3 ED
17D4 3F
17D5 6E
17D6 81
17D7 2E
17D8 56
17D9 8F
17DA 55
17DB 97
17DC 8D
17DD 40
17DE 6D
17DF 3B
17E0 5E
17E1 20
17E2 44
17E3 0B
17E4 32
17E5 65
17E6 00
17E7 6D
17E8 77
17E9 A0
17EA A2
17EB F6
17EC 3B
17ED 59
17EE E8
17EF C8
17F0 C4
17F1 43
17F2 7C
17F3 8E
17F4 FA
17F5 0F
17F6 38
17F7 CF
17F8 7B
17F9 88
17FA B7
17FB A8
17FC A8
17FD C2
17FE 12
17FF 14
1800 C2
1801 7B
1802 20
1803 8E
1804 0E
1805 0A
1806 2C
1807 12
1808 A6
1809 F4
180A 05
180B 11
180C 5E
180D 03
180E BE
180F E4
1810 E7
1811 5D
1812 99
1813 02
1814 36
1815 C2
1816 39
1817 14
1818 71
1819 C1
181A 3D
181B 0C
181C 41
181D 95
181E A8
181F 75
1820 C3
1821 74
1822 F9
1823 8E
1824 2E
1825 32
1826 56
1827 11
1828 DE
1829 2E
182A 24
182B E5
182C 39
182D 36
182E D7
182F 96
1830 E8
1831 85
1832 88
1833 A2
1834 34
1835 68
1836 53
1837 4A
1838 8B
1839 66
183A 47
183B 9D
183C B5
183D D7
183E F4
183F 3D
1840 AE
1841 F7
1842 8B
1843 FB
1844 C2
1845 33
1846 10
1847 20
1848 91
1849 12
184A 76
184B 1B
184C E8
184D 98
184E 5C
184F BF
1850 79
1851 C2
1852 5A
1853 34
1854 DE
1855 09
1856 4D
1857 83
1858 92
1859 71
185A BF
185B 03
185C 5C
185D F2
185E 34
185F 3A
1860 96
1861 E0
1862 9F
1863 1A
1864 82
1865 FB
1866 91
1867 DA
1868 9F
1869 6A
186A CC
186B 40
186C 1C
186D DF
186E 57
186F 3F
1870 23
1871 DA
1872 8A
1873 1C
1874 5A
1875 88
1876 D7
1877 34
1878 50
1879 67
187A EE
187B 64
187C 1E
187D 8D
187E E6
187F C6
1880 28
1881 37
1882 81
1883 EC
1884 59
1885 6B
1886 05
1887 EF
1888 39
1889 AC
188A A7
188B 75
188C 80
188D D4
188E 9B
188F F4
1890 22
1891 41
1892 D4
1893 F4
1894 8D
1895 EB
1896 DF
1897 E0
1898 0D
1899 D4
189A E2
189B 21
189C 56
189D 22
189E D7
189F 02
18A0 47
18A1 2B
18A2 59
18A3 2E
18A4 3F
18A5 84
18A6 B0
18A7 F1
18A8 01
18A9 23
18AA 4F
18AB 51
18AC A9
18AD B9
18AE C4
18AF 84
18B0 8F
18B1 5E
18B2 C9
18B3 83
18B4 9B
18B5 08
18B6 93
18B7 C0
18B8 19
18B9 14
18BA 84
18BB 65
18BC 79
18BD 48
18BE E8
18BF F8
18C0 26
18C1 F9
18C2 D0
18C3 F3
18C4 52
18C5 E4
18C6 D8
18C7 F0
18C8 7F
18C9 BE
18CA 0A
18CB 37
18CC 14
18CD FA
18CE E3
18CF D8
18D0 52
18D1 AD
18D2 8B
18D3 E1
18D4 AF
18D5 CA
18D6 BB
18D7 66
18D8 7E
18D9 42
18DA 3A
18DB E8
18DC 0C
18DD C7
18DE D9
18DF CF
18E0 14
18E1 F1
18E2 B3
18E3 77
18E4 60
18E5 1F
18E6 45
18E7 20
18E8 5D
18E9 35
18EA FA
18EB 7B
18EC 9D
18ED 8B
18EE 16
18EF 4D
18F0 82
18F1 BA
18F2 23
18F3 AF
18F4 82
18F5 C9
18F6 91
18F7 CE
18F8 85
18F9 76
18FA 1D
18FB 63
18FC 51
18FD 75
18FE F1
18FF B6
1900 4A
1901 23
1902 12
1903 F6
1904 B0
1905 35
1906 A0
1907 AE
1908 54
1909 2E
190A 34
190B 84
190C 7F
190D 4D
190E F6
190F 85
1910 96
1911 42
1912 96
1913 72
1914 B3
1915 F6
1916 BB
1917 EA
1918 5D
1919 F7
191A D7
191B 12
191C A6
191D D6
191E A5
191F 71
1920 B9
1921 3C
1922 EC
1923 C5
1924 89
1925 01
1926 A5
1927 28
1928 27
1929 55
192A A1
192B 09
192C 86
192D EB
192E 6B
192F 1E
1930 83
1931 5A
1932 5E
1933 4C
1934 9B
1935 55
1936 B6
1937 A2
1938 2F
1939 56
193A 90
193B EF
193C E1
193D 9F
193E 9F
193F F8
1940 F5
1941 A3
1942 53
1943 4C
1944 59
1945 87
1946 29
1947 8F
1948 2E
1949 CE
194A C6
194B D7
194C 7F
194D F8
194E 1A
194F 1B
1950 5E
1951 32
1952 8B
1953 D1
1954 2A
1955 6D
1956 63
1957 AE
1958 28
1959 5E
195A 28
195B 95
195C 97
195D D1
195E 58
195F FC
1960 15
1961 91
1962 BE
1963 55
1964 2F
1965 BD
1966 CC
1967 B4
1968 D9
1969 0C
196A 79
196B F0
196C 76
196D 39
196E 63
196F F1
1970 BF
1971 EF
1972 1A
1973 72
1974 C0
1975 D7
1976 0D
1977 EE
1978 A8
1979 89
197A 0F
197B 1C
197C 83
197D DC
197E 03
197F 0E
1980 F7
1981 A7
1982 B8
1983 7B
1984 4C
1985 39
1986 7F
1987 B1
1988 7A
1989 8B
198A D3
198B 41
198C 51
198D 5A
198E FF
198F 22
1990 A0
1991 52
1992 2A
1993 49
1994 09
1995 4B
1996 25
1997 46
1998 D4
1999 FF
199A 03
199B 1B
199C 24
199D 3E
199E 5F
199F 69
19A0 DA
19A1 19
19A2 FF
19A3 77
19A4 78
19A5 6C
19A6 11
19A7 A2
19A8 63
19A9 75
19AA 5D
19AB 77
19AC DE
19AD 8B
19AE AC
19AF 0A
19B0 44
19B1 91
19B2 49
19B3 A9
19B4 90
19B5 8A
19B6 16
19B7 BF
19B8 F0
19B9 AD
19BA 43
19BB F1
19BC AD
19BD 6F
19BE 4E
19BF F4
19C0 3C
19C1 D8
19C2 27
19C3 51
19C4 61
19C5 E3
19C6 8D
19C7 C7
19C8 9D
19C9 50
19CA 68
19CB 3B
19CC 4D
19CD BF
19CE DA
19CF 7C
19D0 AC
19D1 CD
19D2 B6
19D3 C7
19D4 7C
19D5 CF
19D6 9E
19D7 1A
19D8 AC
19D9 2E
19DA FB
19DB A5
19DC 48
19DD D0
19DE A1
19DF FB
19E0 2A
19E1 B2
19E2 F4
19E3 E9
19E4 74
19E5 9C
19E6 46
19E7 A1
19E8 A0
19E9 E9
19EA E9
19EB 6A
19EC 0F
19ED 79
19EE 87
19EF FE
19F0 78
19F1 BF
19F2 71
19F3 96
19F4 E4
19F5 D2
19F6 07
19F7 5D
19F8 CD
19F9 E2
19FA 84
19FB 6F
19FC 8F
19FD E0
19FE FE
19FF 68
1A00 CA
1A01 A8
1A02 EB
1A03 80
1A04 6B
1A05 C7
1A06 3B
1A07 F4
1A08 58
1A09 25
1A0A B1
1A0B B5
1A0C 6B
1A0D B8
1A0E 17
1A0F 9F
1A10 0F
1A11 C0
1A12 7A
1A13 C9
1A14 57
1A15 DE
1A16 02
1A17 80
1A18 C7
1A19 0F
1A1A 10
1A1B 2E
1A1C B7
1A1D B3
1A1E 91
1A1F 8A
1A20 C8
1A21 31
1A22 B9
1A23 3C
1A24 B4
1A25 75
1A26 26
1A27 A7
1A28 3F
1A29 04
1A2A 53
1A2B 27
1A2C B8
1A2D 9B
1A2E 77
1A2F 05
1A30 E1
1A31 61
1A32 0A
1A33 BE
1A34 6E
1A35 05
1A36 74
1A37 4C
1A38 3C
1A39 56
1A3A 02
1A3B 64
1A3C 88
1A3D 0C
1A3E 4D
1A3F 37
1A40 36
1A41 81
1A42 C2
1A43 15
1A44 9D
1A45 1A
1A46 C9
1A47 F9
1A48 4B
1A49 52
1A4A 7E
1A4B 0F
1A4C 66
1A4D BA
1A4E EC
1A4F B4
1A50 14
1A51 73
1A52 9D
1A53 61
1A54 5A
1A55 CC
1A56 24
1A57 B6
1A58 8B
1A59 E2
1A5A 15
1A5B 6F
1A5C 98
1A5D C6
1A5E 3E
1A5F 39
1A60 42
1A61 08
1A62 E1
1A63 F5
1A64 5F
1A65 35
1A66 98
1A67 A5
1A68 33
1A69 C8
1A6A 0E
1A6B D6
1A6C 9B
1A6D A0
1A6E 2E
1A6F 0E
1A70 D1
1A71 EC
1A72 D8
1A73 1E
1A74 34
1A75 09
1A76 38
1A77 72
1A78 79
1A79 B4
1A7A 69
1A7B 47
1A7C 12
1A7D EE
1A7E 8E
1A7F E4
1A80 43
1A81 EA
1A82 09
1A83 7D
1A84 40
1A85 00
1A86 2E
1A87 D9
1A88 BB
1A89 1A
1A8A A9
1A8B 88
1A8C C0
1A8D 78
1A8E 5E
1A8F 65
1A90 7F
1A91 08
1A92 CC
1A93 CA
1A94 37
1A95 C9
1A96 16
1A97 B1
1A98 E1
1A99 71
1A9A C5
1A9B 32
1A9C 63
1A9D 23
1A9E D1
1A9F C7
1AA0 6D
1AA1 B3
1AA2 A7
1AA3 46
1AA4 A3
1AA5 56
1AA6 4F
1AA7 1A
1AA8 FF
1AA9 A1
1AAA 77
1AAB 30
1AAC CF
1AAD 16
1AAE E9
1AAF 90
1AB0 23
1AB1 77
1AB2 88
1AB3 1A
1AB4 AB
1AB5 93
1AB6 41
1AB7 5F
1AB8 53
1AB9 3F
1ABA FE
1ABB 0F
1ABC EB
1ABD 88
1ABE 4D
1ABF 9D
1AC0 7C
1AC1 E3
1AC2 0B
1AC3 B7
1AC4 B7
1AC5 75
1AC6 ED
1AC7 02
1AC8 3D
1AC9 7B
1ACA 11
1ACB 67
1ACC 5E
1ACD F7
1ACE 33
1ACF 75
1AD0 03
1AD1 BC
1AD2 85
1AD3 13
1AD4 27
1AD5 42
1AD6 13
1AD7 A9
1AD8 F2
1AD9 A8
1ADA ED
1ADB 14
1ADC 6D
1ADD 79
1ADE 4F
1ADF A6
1AE0 CE
1AE1 9C
1AE2 3A
1AE3 5C
1AE4 38
1AE5 DF
1AE6 B7
1AE7 43
1AE8 7D
1AE9 4A
1AEA A0
1AEB 64
1AEC 3D
1AED 8D
1AEE 75
1AEF 65
1AF0 00
1AF1 BC
1AF2 E9
1AF3 A3
1AF4 DD
1AF5 67
1AF6 28
1AF7 9D
1AF8 B1
1AF9 74
1AFA 9E
1AFB A2
1AFC 1D
1AFD FB
1AFE 42
1AFF CA
1B00 3E
1B01 8B
1B02 5B
1B03 1C
1B04 06
1B05 07
1B06 29
1B07 F1
1B08 20
1B09 9A
1B0A 3D
1B0B 1C
1B0C 6F
1B0D 1D
1B0E 57
1B0F 82
1B10 59
1B11 6E
1B12 56
1B13 CE
1B14 F6
1B15 D9
1B16 BC
1B17 59
1B18 15
1B19 02
1B1A E1
1B1B 56
1B1C 0C
1B1D E9
1B1E 38
1B1F 00
1B20 1A
1B21 E2
1B22 09
1B23 1A
1B24 95
1B25 48
1B26 D5
1B27 EE
1B28 D9
1B29 76
1B2A 49
1B2B 43
1B2C 33
1B2D 3C
1B2E 1C
1B2F 12
1B30 60
1B31 35
1B32 C5
1B33 68
1B34 85
1B35 FC
1B36 AC
1B37 5A
1B38 BD
1B39 8F
1B3A DB
1B3B B1
1B3C 6B
1B3D 03
1B3E D2
1B3F 4E
1B40 E0
1B41 E1
1B42 25
1B43 47
1B44 92
1B45 68
1B46 D9
1B47 80
1B48 59
1B49 4B
1B4A 03
1B4B 15
1B4C FB
1B4D 61
1B4E 3C
1B4F D2
1B50 47
1B51 0F
1B52 D6
1B53 78
1B54 B4
1B55 5A
1B56 0D
1B57 D5
1B58 9A
1B59 8E
1B5A 70
1B5B 84
1B5C F0
1B5D 6B
1B5E 49
1B5F 42
1B60 3E
1B61 63
1B62 08
1B63 EA
1B64 A6
1B65 0B
1B66 66
1B67 F4
1B68 36
1B69 FF
1B6A 81
1B6B ED
1B6C 6A
1B6D 63
1B6E 2A
1B6F D8
1B70 01
1B71 BC
1B72 FA
1B73 C6
1B74 36
1B75 E8
1B76 6E
1B77 8B
1B78 D9
1B79 92
1B7A 39
1B7B F2
1B7C EA
1B7D 86
1B7E E3
1B7F 77
1B80 B1
1B81 EF
1B82 23
1B83 AE
1B84 53
1B85 09
1B86 D3
1B87 CF
1B88 63
1B89 7A
1B8A 4F
1B8B 9F
1B8C D7
1B8D 96
1B8E CF
1B8F 6A
1B90 02
1B91 22
1B92 E3
1B93 D2
1B94 95
1B95 48
1B96 42
1B97 65
1B98 30
1B99 35
1B9A A3
1B9B 59
1B9C 69
1B9D CB
1B9E 60
1B9F 5E
1BA0 BE
1BA1 71
1BA2 56
1BA3 C1
1BA4 FA
1BA5 07
1BA6 C5
1BA7 49
1BA8 50
1BA9 1F
1BAA E3
1BAB 8F
1BAC 86
1BAD 7E
1BAE 3C
1BAF 47
1BB0 E9
1BB1 A4
1BB2 5C
1BB3 36
1BB4 2B
1BB5 27
1BB6 C6
1BB7 44
1BB8 F9
1BB9 F8
1BBA 67
1BBB DD
1BBC F0
1BBD 67
1BBE 93
1BBF 91
1BC0 FA
1BC1 96
1BC2 78
1BC3 72
1BC4 FD
1BC5 03
1BC6 02
1BC7 1E
1BC8 B5
1BC9 19
1BCA 00
1BCB AF
1BCC F0
1BCD 41
1BCE D4
1BCF 7A
1BD0 C9
1BD1 50
1BD2 CC
1BD3 4D
1BD4 16
1BD5 BB
1BD6 F8
1BD7 7D
1BD8 D1
1BD9 1B
1BDA C0
1BDB 36
1BDC 99
1BDD A3
1BDE 9C
1BDF A5
1BE0 0C
1BE1 C2
1BE2 A4
1BE3 FD
1BE4 23
1BE5 F0
1BE6 9B
1BE7 BE
1BE8 02
1BE9 56
1BEA 71
1BEB F6
1BEC 72
1BED A9
1BEE 11
1BEF 62
1BF0 52
1BF1 1D
1BF2 53
1BF3 9C
1BF4 E1
1BF5 7A
1BF6 3F
1BF7 6F
1BF8 53
1BF9 C0
1BFA 44
1BFB 7D
1BFC B9
1BFD A8
1BFE 0F
1BFF C0
1C00 AC
1C01 4D
1C02 E3
1C03 13
1C04 D4
1C05 FA
1C06 CB
1C07 2C
1C08 96
1C09 39
1C0A 47
1C0B 61
1C0C A7
1C0D A1
1C0E 41
1C0F E5
1C10 F0
1C11 40
1C12 5A
1C13 48
1C14 45
1C15 FC
1C16 45
1C17 6A
1C18 F4
1C19 EE
1C1A 93
1C1B 6E
1C1C C5
1C1D 94
1C1E 17
1C1F 6C
1C20 1A
1C21 FD
1C22 1B
1C23 DD
1C24 76
1C25 CF
1C26 A0
1C27 3C
1C28 7D
1C29 AC
1C2A AD
1C2B C5
1C2C 36
1C2D 54
1C2E 41
1C2F B1
1C30 02
1C31 DC
1C32 1F
1C33 4E
1C34 1A
1C35 13
1C36 5A
1C37 D3
1C38 FF
1C39 52
1C3A 25
1C3B BC
1C3C 7C
1C3D 68
1C3E 7C
1C3F 22
1C40 22
1C41 EB
1C42 28
1C43 EB
1C44 D1
1C45 53
1C46 21
1C47 94
1C48 E9
1C49 D6
1C4A 63
1C4B 39
1C4C 37
1C4D 08
1C4E 61
1C4F BB
1C50 17
1C51 04
1C52 68
1C53 61
1C54 BB
1C55 52
1C56 4A
1C57 AE
1C58 D9
1C59 2D
1C5A D9
1C5B 99
1C5C 84
1C5D 32
1C5E B0
1C5F 85
1C60 BB
1C61 FE
1C62 07
1C63 3C
1C64 F5
1C65 B1
1C66 32
1C67 70
1C68 05
1C69 0B
1C6A AF
1C6B 21
1C6C 06
1C6D F2
1C6E 61
1C6F 17
1C70 60
1C71 4F
1C72 B3
1C73 31
1C74 DB
1C75 D1
1C76 18
1C77 25
1C78 E6
1C79 76
1C7A DB
1C7B 06
1C7C 3D
1C7D 2E
1C7E 29
1C7F F6
1C80 E1
1C81 C9
1C82 D9
1C83 C4
1C84 7F
1C85 7F
1C86 DE
1C87 71
1C88 EA
1C89 DB
1C8A 1F
1C8B FB
1C8C EC
1C8D DE
1C8E CB
1C8F 15
1C90 FD
1C91 DD
1C92 00
1C93 28
1C94 05
1C95 82
1C96 EC
1C97 41
1C98 7D
1C99 38
1C9A 45
1C9B DD
1C9C 5E
1C9D 10
1C9E 1A
1C9F D0
1CA0 F5
1CA1 E2
1CA2 35
1CA3 AD
1CA4 95
1CA5 67
1CA6 0C
1CA7 E4
1CA8 2E
1CA9 7D
1CAA AC
1CAB 9B
1CAC E9
1CAD 50
1CAE 03
1CAF 5F
1CB0 A2
1CB1 56
1CB2 DA
1CB3 89
1CB4 D9
1CB5 DA
1CB6 D4
1CB7 1A
1CB8 12
1CB9 61
1CBA DB
1CBB 9D
1CBC 55
1CBD 04
1CBE E5
1CBF 4C
1CC0 FC
1CC1 37
1CC2 BF
1CC3 4F
1CC4 45
1CC5 E2
1CC6 68
1CC7 2F
1CC8 E4
1CC9 B2
1CCA E9
1CCB F4
1CCC 9B
1CCD F1
1CCE 1D
1CCF 4D
1CD0 98
1CD1 AD
1CD2 3A
1CD3 C1
1CD4 87
1CD5 68
1CD6 FD
1CD7 8B
1CD8 68
1CD9 9A
1CDA 71
1CDB 5C
1CDC 0B
1CDD CA
1CDE F5
1CDF 24
1CE0 13
1CE1 E1
1CE2 FC
1CE3 B5
1CE4 01
1CE5 01
1CE6 EB
1CE7 F4
1CE8 35
1CE9 CE
1CEA D5
1CEB 83
1CEC 10
1CED 07
1CEE DC
1CEF 8D
1CF0 C4
1CF1 E8
1CF2 41
1CF3 1F
1CF4 9D
1CF5 7C
1CF6 D6
1CF7 00
1CF8 63
1CF9 DC
1CFA 99
1CFB 10
1CFC C3
1CFD 7D
1CFE C2
1CFF 8E
1D00 C8
1D01 E7
1D02 95
1D03 F7
1D04 D1
1D05 CA
1D06 F0
1D07 4D
1D08 A5
1D09 E6
1D0A 68
1D0B 6E
1D0C 67
1D0D 0D
1D0E 80
1D0F F7
1D10 C7
1D11 EA
1D12 59
1D13 C1
1D14 CA
1D15 B1
1D16 79
1D17 10
1D18 D6
1D19 48
1D1A C6
1D1B 19
1D1C 6B
1D1D 29
1D1E 36
1D1F D8
1D20 61
1D21 8F
1D22 4D
1D23 A1
1D24 81
1D25 31
1D26 B0
1D27 E7
1D28 D7
1D29 47
1D2A 76
1D2B 09
1D2C 2F
1D2D 4C
1D2E FC
1D2F 91
1D30 A1
1D31 55
1D32 DE
1D33 4C
1D34 F2
1D35 AD
1D36 EA
1D37 90
1D38 03
1D39 46
1D3A FF
1D3B 8B
1D3C 70
1D3D 3B
1D3E D7
1D3F 2A
1D40 3D
1D41 07
1D42 DB
1D43 03
1D44 4F
1D45 2D
1D46 10
1D47 50
1D48 78
1D49 35
1D4A 71
1D4B FF
1D4C 7A
1D4D A9
1D4E B9
1D4F 32
1D50 1D
1D51 BC
1D52 4D
1D53 95
1D54 6B
1D55 C4
1D56 67
1D57 1D
1D58 BF
1D59 09
1D5A 94
1D5B ED
1D5C 22
1D5D 35
1D5E F1
1D5F 4A
1D60 11
1D61 48
1D62 0B
1D63 86
1D64 53
1D65 D9
1D66 52
1D67 F2
1D68 F4
1D69 F6
1D6A BB
1D6B 6E
1D6C 24
1D6D 01
1D6E D5
1D6F 42
1D70 6E
1D71 5F
1D72 8F
1D73 E6
1D74 1B
1D75 4D
1D76 FC
1D77 F1
1D78 83
1D79 72
1D7A EF
1D7B 5A
1D7C 69
1D7D FF
1D7E A0
1D7F 1D
1D80 4F
1D81 12
1D82 49
1D83 3E
1D84 AD
1D85 75
1D86 EF
1D87 7E
1D88 E8
1D89 0C
1D8A 75
1D8B 9B
1D8C 27
1D8D 8B
1D8E BF
1D8F 61
1D90 93
1D91 F6
1D92 F7
1D93 40
1D94 17
1D95 8C
1D96 B8
1D97 8A
1D98 E4
1D99 CA
1D9A 68
1D9B 62
1D9C 49
1D9D 92
1D9E B9
1D9F 4B
1DA0 1A
1DA1 7C
1DA2 D5
1DA3 CF
1DA4 22
1DA5 A7
1DA6 27
1DA7 5C
1DA8 8B
1DA9 5E
1DAA 82
1DAB A1
1DAC EE
1DAD 9B
1DAE 14
1DAF B3
1DB0 D9
1DB1 7C
1DB2 7F
1DB3 30
1DB4 7E
1DB5 B2
1DB6 8D
1DB7 8E
1DB8 05
1DB9 92
1DBA 1B
1DBB EA
1DBC 4C
1DBD 1D
1DBE 10
1DBF AF
1DC0 A6
1DC1 E1
1DC2 37
1DC3 03
1DC4 40
1DC5 A2
1DC6 B9
1DC7 2C
1DC8 9E
1DC9 05
1DCA 85
1DCB C3
1DCC 6A
1DCD 0D
1DCE 54
1DCF 3C
1DD0 20
1DD1 03
1DD2 E1
1DD3 49
1DD4 17
1DD5 B4
1DD6 F7
1DD7 D6
1DD8 25
1DD9 F5
1DDA 45
1DDB 8E
1DDC F7
1DDD 84
1DDE 8B
1DDF 43
1DE0 F5
1DE1 FA
1DE2 9F
1DE3 8E
1DE4 2C
1DE5 BD
1DE6 43
1DE7 4E
1DE8 42
1DE9 91
1DEA B9
1DEB 75
1DEC DF
1DED 15
1DEE 7E
1DEF E0
1DF0 45
1DF1 56
1DF2 96
1DF3 15
1DF4 DB
1DF5 5B
1DF6 E3
1DF7 3F
1DF8 40
1DF9 32
1DFA 43
1DFB E2
1DFC AA
1DFD C4
1DFE 06
1DFF 2E
1E00 EE
1E01 D2
1E02 71
1E03 C8
1E04 21
1E05 01
1E06 48
1E07 D1
1E08 67
1E09 8C
1E0A 3C
1E0B 72
1E0C A9
1E0D 28
1E0E 19
1E0F 6F
1E10 C6
1E11 F4
1E12 47
1E13 86
1E14 17
1E15 0C
1E16 8D
1E17 38
1E18 A2
1E19 AF
1E1A 0A
1E1B 9F
1E1C 3F
1E1D 14
1E1E DA
1E1F 7F
1E20 29
1E21 9C
1E22 26
1E23 6F
1E24 39
1E25 32
1E26 E3
1E27 21
1E28 E3
1E29 5C
1E2A 8E
1E2B 2E
1E2C D8
1E2D 80
1E2E C4
1E2F 1C
1E30 90
1E31 CF
1E32 23
1E33 D4
1E34 01
1E35 8A
1E36 C3
1E37 85
1E38 55
1E39 B7
1E3A B0
1E3B 90
1E3C 84
1E3D F9
1E3E 3A
1E3F 0A
1E40 79
1E41 2C
1E42 02
1E43 B4
1E44 3B
1E45 05
1E46 83
1E47 A8
1E48 CA
1E49 61
1E4A 58
1E4B 5C
1E4C 96
1E4D CF
1E4E 1F
1E4F FD
1E50 F3
1E51 86
1E52 EE
1E53 21
1E54 8C
1E55 4E
1E56 4C
1E57 38
1E58 0E
1E59 04
1E5A C9
1E5B F2
1E5C E9
1E5D 5B
1E5E B9
1E5F F2
1E60 4B
1E61 9B
1E62 36
1E63 BB
1E64 4D
1E65 EE
1E66 96
1E67 27
1E68 6F
1E69 3E
1E6A 64
1E6B 30
1E6C CC
1E6D F4
1E6E E6
1E6F C6
1E70 24
1E71 F4
1E72 DF
1E73 D8
1E74 03
1E75 99
1E76 A5
1E77 89
1E78 5F
1E79 70
1E7A 7F
1E7B 47
1E7C A9
1E7D F4
1E7E BA
1E7F 8D
1E80 FE
1E81 61
1E82 F4
1E83 EB
1E84 FD
1E85 07
1E86 E7
1E87 97
1E88 3F
1E89 3A
1E8A A7
1E8B F5
1E8C 30
1E8D 69
1E8E C5
1E8F 26
1E90 C7
1E91 5C
1E92 C6
1E93 45
1E94 20
1E95 D2
1E96 49
1E97 6A
1E98 1E
1E99 EC
1E9A 29
1E9B 4F
1E9C 20
1E9D DB
1E9E 55
1E9F DD
1EA0 A6
1EA1 D9
1EA2 00
1EA3 46
1EA4 DA
1EA5 08
1EA6 2A
1EA7 91
1EA8 E5
1EA9 B2
1EAA 35
1EAB B6
1EAC CE
1EAD C4
1EAE 42
1EAF 9D
1EB0 F8
1EB1 99
1EB2 51
1EB3 18
1EB4 13
1EB5 2F
1EB6 1A
1EB7 7C
1EB8 1E
1EB9 E5
1EBA 61
1EBB EC
1EBC F9
1EBD 48
1EBE 48
1EBF E0
1EC0 41
1EC1 C8
1EC2 01
1EC3 34
1EC4 A9
1EC5 65
1EC6 87
1EC7 B1
1EC8 33
1EC9 7F
1ECA D3
1ECB 33
1ECC D0
1ECD C8
1ECE 0D
1ECF DD
1ED0 2D
1ED1 B9
1ED2 93
1ED3 CB
1ED4 B3
1ED5 CE
1ED6 F6
1ED7 1F
1ED8 07
1ED9 16
1EDA 13
1EDB 33
1EDC EA
1EDD B4
1EDE E2
1EDF 5C
1EE0 5B
1EE1 B2
1EE2 E5
1EE3 C8
1EE4 5E
1EE5 EA
1EE6 70
1EE7 1F
1EE8 96
1EE9 CA
1EEA 9E
1EEB 4A
1EEC 66
1EED 78
1EEE 15
1EEF 8F
1EF0 EB
1EF1 99
1EF2 57
1EF3 C1
1EF4 1C
1EF5 69
1EF6 E8
1EF7 B0
1EF8 33
1EF9 5D
1EFA 55
1EFB AA
1EFC 87
1EFD 4C
1EFE 55
1EFF 5F
1F00 F5
1F01 26
1F02 3F
1F03 B8
1F04 8B
1F05 DC
1F06 19
1F07 CF
1F08 2A
1F09 E1
1F0A 6E
1F0B 25
1F0C B7
1F0D 7B
1F0E E1
1F0F E8
1F10 37
1F11 87
1F12 21
1F13 2C
1F14 29
1F15 1C
1F16 D9
1F17 5A
1F18 72
1F19 4C
1F1A 1E
1F1B 8B
1F1C 5C
1F1D 87
1F1E 33
1F1F 24
1F20 CA
1F21 76
1F22 CA
1F23 3B
1F24 10
1F25 15
1F26 7E
1F27 D8
1F28 AB
1F29 EA
1F2A F5
1F2B A4
1F2C 3A
1F2D DD
1F2E 85
1F2F 6B
1F30 E9
1F31 47
1F32 3A
1F33 84
1F34 8F
1F35 FB
1F36 5E
1F37 CE
1F38 89
1F39 D5
1F3A B8
1F3B B9
1F3C FA
1F3D D8
1F3E BA
1F3F D2
1F40 40
1F41 4E
1F42 24
1F43 81
1F44 6F
1F45 40
1F46 4E
1F47 CC
1F48 56
1F49 BE
1F4A 7B
1F4B 78
1F4C 66
1F4D 77
1F4E 95
1F4F CE
1F50 64
1F51 81
1F52 D2
1F53 84
1F54 1B
1F55 68
1F56 6B
1F57 F6
1F58 44
1F59 22
1F5A DC
1F5B F4
1F5C E4
1F5D B3
1F5E 35
1F5F 22
1F60 1F
1F61 92
1F62 7D
1F63 57
1F64 CA
1F65 87
1F66 02
1F67 85
1F68 EC
1F69 29
1F6A 73
1F6B C0
1F6C 47
1F6D 85
1F6E EA
1F6F D9
1F70 06
1F71 74
1F72 7A
1F73 09
1F74 DC
1F75 67
1F76 69
1F77 38
1F78 08
1F79 0C
1F7A 69
1F7B 3B
1F7C 97
1F7D C9
1F7E 6A
1F7F BB
1F80 01
1F81 43
1F82 F7
1F83 DE
1F84 6B
1F85 16
1F86 E3
1F87 A4
1F88 39
1F89 FA
1F8A AD
1F8B 79
1F8C 14
1F8D B7
1F8E 28
1F8F 89
1F90 06
1F91 E2
1F92 6A
1F93 93
1F94 30
1F95 69
1F96 5B
1F97 B0
1F98 BD
1F99 76
1F9A A2
1F9B FB
1F9C 97
1F9D 7E
1F9E F1
1F9F DF
1FA0 7D
1FA1 0D
1FA2 22
1FA3 A4
1FA4 C5
1FA5 D7
1FA6 40
1FA7 E3
1FA8 AE
1FA9 36
1FAA 8F
1FAB 7A
1FAC 20
1FAD CA
1FAE 4F
1FAF 4D
1FB0 E6
1FB1 9A
1FB2 C7
1FB3 17
1FB4 4D
1FB5 61
1FB6 E9
1FB7 78
1FB8 57
1FB9 D6
1FBA B4
1FBB 96
1FBC 1B
1FBD 33
1FBE 04
1FBF C5
1FC0 96
1FC1 32
1FC2 43
1FC3 8E
1FC4 84
1FC5 EA
1FC6 C2
1FC7 AF
1FC8 1E
1FC9 D9
1FCA 19
1FCB EC
1FCC 0D
1FCD 6F
1FCE B4
1FCF 08
1FD0 29
1FD1 B9
1FD2 CE
1FD3 44
1FD4 9E
1FD5 F9
1FD6 C8
1FD7 E6
1FD8 C7
1FD9 44
1FDA 89
1FDB F4
1FDC D7
1FDD E6
1FDE 9F
1FDF 00
1FE0 D6
1FE1 FB
1FE2 6C
1FE3 AA
1FE4 A4
1FE5 D4
1FE6 C3
1FE7 03
1FE8 DC
1FE9 D9
1FEA 9C
1FEB FE
1FEC C6
1FED 35
1FEE 05
1FEF E1
1FF0 AA
1FF1 47
1FF2 30
1FF3 B2
1FF4 0B
1FF5 01
1FF6 70
1FF7 AE
1FF8 36
1FF9 F3
1FFA 5C
1FFB AE
1FFC 9B
1FFD 98
1FFE 2F
1FFF 84
2000 0F
2001 7F
2002 51
2003 B9
2004 2C
2005 67
2006 DE
2007 38
2008 CC
2009 A2
200A 0C
200B 87
200C 95
200D 14
200E 9E
200F 69
2010 29
2011 52
2012 01
2013 17
2014 37
2015 AF
2016 C2
2017 23
2018 82
2019 43
201A 38
201B 59
201C F5
201D 10
201E 12
201F DD
2020 EA
2021 6B
2022 BD
2023 38
2024 4E
2025 10
2026 73
2027 22
2028 49
2029 E7
202A 42
202B F2
202C 01
202D A1
202E 09
202F 52
2030 12
2031 6A
2032 EC
2033 8D
2034 8E
2035 2C
2036 32
2037 ED
2038 4C
2039 51
203A A8
203B 67
203C 22
203D 1F
203E D6
203F BB
2040 11
2041 DE
2042 92
2043 09
2044 E0
2045 44
2046 C0
2047 54
2048 94
2049 98
204A 12
204B 91
204C 48
204D EA
204E F4
204F 38
2050 60
2051 3A
2052 D9
2053 26
2054 30
2055 51
2056 22
2057 22
2058 E9
2059 E1
205A 19
205B 9A
205C A6
205D 0A
205E 38
205F 65
2060 30
2061 F9
2062 8D
2063 E7
2064 A1
2065 CC
2066 76
2067 9C
2068 5A
2069 8C
206A 8A
206B 62
206C 59
206D 57
206E 50
206F FB
2070 E9
2071 5D
2072 FD
2073 96
2074 B2
2075 D6
2076 11
2077 DE
2078 55
2079 CB
207A 80
207B 25
207C 82
207D 89
207E B8
207F BD
2080 19
2081 8E
2082 D9
2083 86
2084 A6
2085 76
2086 B1
2087 DD
2088 D6
2089 25
208A CC
208B DF
208C EF
208D 71
208E E8
208F B0
2090 79
2091 42
2092 8E
2093 D1
2094 D1
2095 CF
2096 33
2097 13
2098 A3
2099 E1
209A 85
209B D4
209C B0
209D DE
209E 07
209F 60
20A0 63
20A1 61
20A2 B9
20A3 A8
20A4 5C
20A5 BA
20A6 7D
20A7 D4
20A8 3C
20A9 39
20AA 1F
20AB 32
20AC C3
20AD 32
20AE EA
20AF DE
20B0 25
20B1 1B
20B2 51
20B3 57
20B4 99
20B5 1E
20B6 8C
20B7 A5
20B8 F2
20B9 BC
20BA 7E
20BB 00
20BC F7
20BD A9
20BE 16
20BF ED
20C0 66
20C1 C5
20C2 7A
20C3 12
20C4 D5
20C5 A3
20C6 55
20C7 FA
20C8 D8
20C9 97
20CA ED
20CB 83
20CC 7B
20CD 96
20CE A3
20CF B1
20D0 E3
20D1 D8
20D2 2F
20D3 85
20D4 8F
20D5 06
20D6 5A
20D7 28
20D8 A1
20D9 1B
20DA 80
20DB D2
20DC 59
20DD 2F
20DE 2C
20DF 15
20E0 6F
20E1 76
20E2 FE
20E3 34
20E4 3A
20E5 B8
20E6 2E
20E7 C0
20E8 7D
20E9 48
20EA FC
20EB 95
20EC 01
20ED 2D
20EE 21
20EF D6
20F0 E8
20F1 55
20F2 52
20F3 AE
20F4 28
20F5 AC
20F6 A6
20F7 7D
20F8 23
20F9 F5
20FA 67
20FB BB
20FC 1A
20FD C4
20FE 85
20FF 1D
2100 88
2101 19
2102 82
2103 47
2104 46
2105 15
2106 A5
2107 03
2108 55
2109 06
210A F9
210B 2F
210C D9
210D CF
210E BF
210F F6
2110 94
2111 0E
2112 86
2113 D6
2114 89
2115 FA
2116 1B
2117 40
2118 AC
2119 12
211A 22
211B 53
211C 96
211D 96
211E B0
211F B8
2120 B0
2121 BB
2122 FC
2123 E0
2124 49
2125 6F
2126 42
2127 7F
2128 74
2129 AC
212A 0D
212B FC
212C 02
212D 15
212E 01
212F E9
2130 B7
2131 99
2132 FD
2133 C3
2134 0A
2135 A1
2136 DD
2137 76
2138 BC
2139 6A
213A 10
213B 9F
213C CD
213D 89
213E D4
213F D4
2140 E8
2141 6D
2142 01
2143 BA
2144 0C
2145 D3
2146 65
2147 B3
2148 28
2149 FD
214A A0
214B F3
214C B4
214D E9
214E 49
214F 22
2150 E1
2151 01
2152 2D
2153 0E
2154 6D
2155 07
2156 7A
2157 0E
2158 FA
2159 64
215A F9
215B 3A
215C 6D
215D B8
215E 97
215F 1D
2160 F6
2161 BD
2162 F1
2163 7D
2164 8B
2165 2B
2166 83
2167 64
2168 A6
2169 9C
216A 5E
216B 68
216C A5
216D 1D
216E 13
216F 1D
2170 B6
2171 DA
2172 85
2173 54
2174 50
2175 12
2176 D2
2177 D1
2178 26
2179 33
217A 87
217B 6A
217C DE
217D 30
217E 00
217F 67
2180 37
2181 4E
2182 77
2183 2A
2184 76
2185 0F
2186 CF
2187 69
2188 6D
2189 E4
218A 99
218B AE
218C D0
218D B4
218E 01
218F B1
2190 0B
2191 4C
2192 BA
2193 8D
2194 34
2195 EC
2196 13
2197 11
2198 50
2199 2A
219A 37
219B 1A
219C F7
219D 89
219E DC
219F D1
21A0 1D
21A1 79
21A2 03
21A3 83
21A4 AC
21A5 DA
21A6 CC
21A7 C6
21A8 E4
21A9 3C
21AA F4
21AB 6A
21AC 30
21AD 3D
21AE 93
21AF 4C
21B0 41
21B1 74
21B2 28
21B3 95
21B4 8F
21B5 18
21B6 F7
21B7 99
21B8 AA
21B9 DE
21BA 14
21BB AF
21BC A3
21BD AB
21BE 39
21BF 57
21C0 0A
21C1 D4
21C2 A6
21C3 04
21C4 B8
21C5 E1
21C6 AC
21C7 F9
21C8 66
21C9 60
21CA 34
21CB 5C
21CC A0
21CD 79
21CE 83
21CF 2C
21D0 C5
21D1 01
21D2 6C
21D3 B1
21D4 47
21D5 2F
21D6 F4
21D7 20
21D8 C0
21D9 39
21DA 76
21DB 23
21DC BB
21DD FE
21DE 50
21DF 2F
21E0 C4
21E1 EA
21E2 FC
21E3 82
21E4 D0
21E5 DE
21E6 F9
21E7 15
21E8 71
21E9 0D
21EA A4
21EB BF
21EC 63
21ED EE
21EE 40
21EF 96
21F0 FB
21F1 1A
21F2 4D
21F3 41
21F4 3B
21F5 43
21F6 E4
21F7 20
21F8 12
21F9 C7
21FA 4E
21FB 99
21FC 99
21FD 0F
21FE F1
21FF 01
2200 94
2201 49
2202 11
2203 CE
2204 73
2205 00
2206 15
2207 0A
2208 2A
2209 7E
220A AE
220B CA
220C FE
220D 3C
220E 6A
220F 07
2210 50
2211 92
2212 0A
2213 F7
2214 53
2215 AD
2216 AD
2217 5E
2218 9F
2219 6B
221A 99
221B 65
221C E3
221D D9
221E 75
221F CD
2220 7B
2221 34
2222 2A
2223 AE
2224 5F
2225 A9
2226 34
2227 EA
2228 8E
2229 5C
222A 3E
222B C2
222C B5
222D 4D
222E 28
222F 99
2230 A1
2231 1F
2232 7F
2233 95
2234 BB
2235 C6
2236 D8
2237 99
2238 9B
2239 1C
223A 3D
223B 16
223C A8
223D 5C
223E 43
223F F4
2240 72
2241 F0
2242 EC
2243 D1
2244 43
2245 CA
2246 D1
2247 D7
2248 63
2249 54
224A 09
224B 53
224C C5
224D B0
224E 7C
224F 58
2250 F4
2251 54
2252 E3
2253 D5
2254 58
2255 65
2256 D5
2257 F6
2258 07
2259 2F
225A D6
225B 85
225C 03
225D 77
225E CB
225F 02
2260 1B
2261 3C
2262 97
2263 C2
2264 32
2265 A0
2266 20
2267 36
2268 BF
2269 B2
226A C6
226B 05
226C 99
226D 7E
226E 56
226F 13
2270 AC
2271 1A
2272 86
2273 7B
2274 1F
2275 D9
2276 0A
2277 8F
2278 A0
2279 C8
227A EE
227B D7
227C 43
227D 0A
227E 34
227F 62
2280 D3
2281 B4
2282 78
2283 A7
2284 05
2285 E5
2286 92
2287 AC
2288 0B
2289 1C
228A 58
228B 15
228C 5F
228D 30
228E 91
228F 4C
2290 70
2291 2B
2292 B4
2293 D6
2294 B6
2295 97
2296 BD
2297 9E
2298 CA
2299 25
229A 86
229B 3E
229C B4
229D E7
229E B9
229F 33
22A0 34
22A1 44
22A2 28
22A3 51
22A4 4E
22A5 91
22A6 CE
22A7 3F
22A8 DF
22A9 44
22AA E9
22AB 7F
22AC D9
22AD 74
22AE 74
22AF E7
22B0 C9
22B1 90
22B2 15
22B3 FC
22B4 3B
22B5 3B
22B6 71
22B7 9D
22B8 F4
22B9 EC
22BA 01
22BB CC
22BC 58
22BD E5
22BE 07
22BF 41
22C0 90
22C1 9A
22C2 50
22C3 87
22C4 0C
22C5 09
22C6 7B
22C7 B0
22C8 DB
22C9 68
22CA 5C
22CB 7C
22CC 52
22CD F2
22CE 6E
22CF CA
22D0 75
22D1 1F
22D2 7B
22D3 09
22D4 F2
22D5 A4
22D6 5F
22D7 A1
22D8 65
22D9 C1
22DA 44
22DB 25
22DC E2
22DD BA
22DE 0E
22DF 52
22E0 79
22E1 18
22E2 C4
22E3 34
22E4 01
22E5 88
22E6 15
22E7 D5
22E8 20
22E9 D5
22EA 78
22EB C1
22EC B3
22ED A8
22EE A5
22EF 5B
22F0 F4
22F1 91
22F2 D6
22F3 F0
22F4 E1
22F5 34
22F6 91
22F7 CD
22F8 07
22F9 58
22FA 24
22FB C8
22FC 58
22FD E3
22FE 83
22FF B5
2300 8B
2301 22
2302 76
2303 C3
2304 82
2305 97
2306 9A
2307 41
2308 09
2309 E5
230A 21
230B 24
230C E7
230D 62
230E 70
230F D5
2310 6D
2311 2C
2312 F9
2313 C7
2314 BF
2315 FE
2316 33
2317 1E
2318 71
2319 7D
231A D9
231B C8
231C 9F
231D 30
231E 9E
231F 17
2320 E8
2321 69
2322 40
2323 66
2324 CF
2325 AF
2326 A7
2327 59
2328 9A
2329 F9
232A D9
232B 0E
232C 4D
232D 67
232E D3
232F BA
2330 55
2331 8D
2332 E3
2333 26
2334 0E
2335 81
2336 1A
2337 7B
2338 73
2339 ED
233A 63
233B 59
233C F8
233D 12
233E EA
233F 60
2340 F6
2341 01
2342 45
2343 F7
2344 FA
2345 CA
2346 79
2347 60
2348 23
2349 04
234A 5D
234B EE
234C F8
234D 6F
234E 6E
234F 79
2350 A2
2351 DA
2352 3D
2353 EE
2354 5D
2355 32
2356 7F
2357 46
2358 00
2359 5D
235A 00
235B CF
235C C8
235D 9D
235E 67
235F CE
2360 2F
2361 3F
2362 B5
2363 60
2364 3B
2365 BB
2366 50
2367 8F
2368 DF
2369 40
236A 31
236B CB
236C 05
236D CD
236E 68
236F A5
2370 87
2371 82
2372 A5
2373 25
2374 2A
2375 CB
2376 62
2377 82
2378 83
2379 BF
237A 08
237B 6F
237C F7
237D 24
237E CB
237F E6
2380 AD
2381 9F
2382 AE
2383 12
2384 2C
2385 A6
2386 FB
2387 60
2388 28
2389 4B
238A 71
238B CD
238C 19
238D 88
238E EF
238F E8
2390 E1
2391 21
2392 1F
2393 02
2394 0D
2395 DE
2396 CA
2397 1D
2398 5B
2399 43
239A 83
239B FF
239C A5
239D 66
239E DC
239F E3
23A0 0B
23A1 6B
23A2 1F
23A3 4A
23A4 CB
23A5 A6
23A6 68
23A7 D9
23A8 8E
23A9 EA
23AA E0
23AB FE
23AC D6
23AD F0
23AE C6
23AF 64
23B0 B2
23B1 0C
23B2 AE
23B3 4B
23B4 A7
23B5 BF
23B6 E3
23B7 A6
23B8 A3
23B9 B5
23BA A0
23BB A4
23BC 56
23BD CF
23BE 5F
23BF 18
23C0 BB
23C1 66
23C2 4B
23C3 60
23C4 65
23C5 91
23C6 27
23C7 A2
23C8 C9
23C9 22
23CA 41
23CB 61
23CC D7
23CD 3F
23CE 4C
23CF 0F
23D0 5A
23D1 AF
23D2 E1
23D3 65
23D4 65
23D5 C2
23D6 12
23D7 D0
23D8 88
23D9 10
23DA 90
23DB 83
23DC F2
23DD 0A
23DE 39
23DF CB
23E0 63
23E1 D5
23E2 F1
23E3 CA
23E4 A6
23E5 84
23E6 95
23E7 C3
23E8 30
23E9 58
23EA CF
23EB CB
23EC 5A
23ED 53
23EE 85
23EF 85
23F0 29
23F1 40
23F2 D7
23F3 C5
23F4 A7
23F5 B8
23F6 44
23F7 FA
23F8 E0
23F9 0F
23FA 65
23FB FC
23FC 0E
23FD 44
23FE AD
23FF 5E
2400 A2
2401 3D
2402 CC
2403 BD
2404 B1
2405 2F
2406 5D
2407 35
2408 56
2409 2A
240A 34
240B 7D
240C EA
240D C3
240E 96
240F 20
2410 B6
2411 E9
2412 30
2413 85
2414 0B
2415 E6
2416 65
2417 85
2418 90
2419 7A
241A F8
241B BA
241C CD
241D DA
241E 6A
241F 0A
2420 13
2421 5C
2422 2E
2423 61
2424 B3
2425 57
2426 C3
2427 F3
2428 BC
2429 45
242A 73
242B EE
242C 57
242D 08
242E E6
242F DC
2430 DD
2431 B0
2432 4D
2433 86
2434 14
2435 DF
2436 BB
2437 23
2438 27
2439 5A
243A 59
243B 83
243C 8A
243D CE
243E AD
243F 8B
2440 89
2441 43
2442 9B
2443 DF
2444 E2
2445 5C
2446 5C
2447 01
2448 EC
2449 B0
244A 14
244B BC
244C D1
244D 9F
244E 7F
244F 28
2450 9B
2451 13
2452 ED
2453 37
2454 05
2455 F6
2456 5E
2457 1A
2458 D5
2459 7D
245A 76
245B CC
245C F7
245D 7A
245E B5
245F 6D
2460 7D
2461 DF
2462 B1
2463 3E
2464 AE
2465 C5
2466 39
2467 F2
2468 B3
2469 F7
246A 2D
246B 87
246C 9A
246D A2
246E 4D
246F 31
2470 58
2471 DF
2472 35
2473 12
2474 FE
2475 13
2476 E8
2477 C7
2478 77
2479 D0
247A C9
247B 2D
247C 4D
247D 0D
247E DF
247F 53
2480 33
2481 02
2482 91
2483 CA
2484 9A
2485 E1
2486 14
2487 E9
2488 0E
2489 73
248A B2
248B E6
248C 35
248D 4F
248E D5
248F 3A
2490 4D
2491 2C
2492 29
2493 60
2494 86
2495 3E
2496 42
2497 62
2498 FE
2499 FD
249A BA
249B DD
249C 3D
249D 9B
249E C6
249F E3
24A0 34
24A1 34
24A2 07
24A3 51
24A4 17
24A5 12
24A6 27
24A7 C3
24A8 86
24A9 10
24AA 72
24AB 09
24AC 4D
24AD DE
24AE 9B
24AF 18
24B0 50
24B1 FC
24B2 6C
24B3 11
24B4 DF
24B5 F8
24B6 CD
24B7 E1
24B8 C2
24B9 80
24BA 7C
24BB 9C
24BC 28
24BD D5
24BE B5
24BF 7D
24C0 4F
24C1 35
24C2 12
24C3 F4
24C4 98
24C5 43
24C6 BA
24C7 12
24C8 C1
24C9 3C
24CA 51
24CB 68
24CC EA
24CD 4A
24CE D1
24CF B8
24D0 36
24D1 AD
24D2 FD
24D3 24
24D4 EE
24D5 62
24D6 A1
24D7 67
24D8 A8
24D9 AD
24DA 7F
24DB 03
24DC 6B
24DD A8
24DE 75
24DF 10
24E0 A7
24E1 BF
24E2 50
24E3 CA
24E4 AE
24E5 78
24E6 DA
24E7 B0
24E8 51
24E9 19
24EA 69
24EB E8
24EC 45
24ED 11
24EE DD
24EF A1
24F0 D1
24F1 34
24F2 F6
24F3 0A
24F4 8E
24F5 4D
24F6 2B
24F7 C9
24F8 6D
24F9 55
24FA CF
24FB A9
24FC CA
24FD 5A
24FE 67
24FF F5
2500 95
2501 C4
2502 CD
2503 5E
2504 43
2505 32
2506 47
2507 D6
2508 4C
2509 E7
250A C4
250B 53
250C 21
250D 54
250E 88
250F F3
2510 B5
2511 89
2512 6E
2513 3B
2514 30
2515 A7
2516 A2
2517 9B
2518 56
2519 F4
251A B8
251B 93
251C B7
251D 8C
251E 56
251F 3C
2520 5A
2521 B8
2522 95
2523 FB
2524 FC
2525 43
2526 4D
2527 D6
2528 CC
2529 7A
252A 96
252B 63
252C 44
252D F7
252E 7E
252F 22
2530 B9
2531 15
2532 27
2533 BE
2534 3F
2535 74
2536 50
2537 76
2538 96
2539 23
253A 4B
253B A6
253C 74
253D E4
253E CD
253F 0D
2540 B4
2541 22
2542 32
2543 97
2544 74
2545 4D
2546 4D
2547 0A
2548 C8
2549 EA
254A 3A
254B 9A
254C 5E
254D DC
254E E4
254F 0E
2550 DA
2551 F4
2552 EC
2553 AB
2554 35
2555 02
2556 AE
2557 77
2558 BB
2559 82
255A 6A
255B BC
255C A2
255D 30
255E 67
255F 75
2560 26
2561 AA
2562 26
2563 FC
2564 80
2565 D2
2566 65
2567 B6
2568 50
2569 38
256A 0B
256B 9F
256C C3
256D 6C
256E 7A
256F 0A
2570 32
2571 B1
2572 06
2573 35
2574 69
2575 FA
2576 C5
2577 BD
2578 F6
2579 4E
257A 7C
257B E6
257C E4
257D CA
257E 9D
257F C5
2580 26
2581 13
2582 28
2583 7C
2584 C9
2585 88
2586 8B
2587 D6
2588 67
2589 1B
258A C0
258B C8
258C C3
258D 85
258E 5C
258F 7E
2590 76
2591 0E
2592 91
2593 FB
2594 AC
2595 D9
2596 11
2597 2D
2598 4F
2599 F3
259A 34
259B 6E
259C 34
259D 13
259E 34
259F 59
25A0 A0
25A1 63
25A2 2B
25A3 3E
25A4 41
25A5 D5
25A6 9E
25A7 3E
25A8 8B
25A9 02
25AA 78
25AB D4
25AC 88
25AD 2B
25AE 0F
25AF 57
25B0 B1
25B1 F6
25B2 B5
25B3 C5
25B4 91
25B5 D1
25B6 21
25B7 FE
25B8 34
25B9 14
25BA 3E
25BB C8
25BC BA
25BD 42
25BE DE
25BF 93
25C0 CB
25C1 DB
25C2 B3
25C3 5D
25C4 2E
25C5 B7
25C6 27
25C7 5D
25C8 40
25C9 37
25CA 6B
25CB A9
25CC 1A
25CD 6A
25CE E7
25CF 4F
25D0 88
25D1 A0
25D2 31
25D3 D1
25D4 1E
25D5 5F
25D6 3B
25D7 70
25D8 AB
25D9 90
25DA 22
25DB B2
25DC 90
25DD C7
25DE 89
25DF B9
25E0 96
25E1 B5
25E2 37
25E3 D7
25E4 E4
25E5 CA
25E6 37
25E7 DF
25E8 E4
25E9 60
25EA FF
25EB 7F
25EC 38
25ED E4
25EE 53
25EF D9
25F0 79
25F1 44
25F2 F3
25F3 98
25F4 F1
25F5 FA
25F6 74
25F7 9D
25F8 FD
25F9 09
25FA 40
25FB 8D
25FC 3B
25FD 43
25FE 4A
25FF BF
2600 D0
2601 C0
2602 E1
2603 E0
2604 5B
2605 8F
2606 06
2607 FC
2608 84
2609 C9
260A B5
260B A6
260C 58
260D FF
260E 8F
260F 95
2610 7C
2611 D0
2612 65
2613 CB
2614 17
2615 6E
2616 10
2617 59
2618 97
2619 31
261A 21
261B 6D
261C DA
261D FD
261E 2B
261F 3C
2620 EB
2621 F0
2622 7A
2623 C8
2624 D2
2625 77
2626 5F
2627 A2
2628 4C
2629 C3
262A 83
262B 2D
262C C8
262D 3A
262E A7
262F 9C
2630 A2
2631 A2
2632 05
2633 B5
2634 CF
2635 FD
2636 48
2637 C4
2638 36
2639 37
263A C2
263B 4C
263C 06
263D C1
263E E1
263F A9
2640 E4
2641 11
2642 5E
2643 11
2644 AD
2645 18
2646 7F
2647 93
2648 D9
2649 0C
264A 7D
264B 27
264C C3
264D 36
264E 82
264F 58
2650 53
2651 1C
2652 B8
2653 56
2654 0F
2655 25
2656 32
2657 C5
2658 36
2659 6A
265A 28
265B 07
265C 66
265D 0F
265E 20
265F DE
2660 0B
2661 37
2662 F1
2663 71
2664 7A
2665 CA
2666 F1
2667 1A
2668 F0
2669 28
266A 57
266B D4
266C A9
266D B7
266E 4B
266F 02
2670 09
2671 5B
2672 8B
2673 F1
2674 49
2675 21
2676 54
2677 19
2678 5D
2679 02
267A 86
267B 5B
267C 7B
267D 63
267E 8D
267F 00
2680 3C
2681 9A
2682 BD
2683 06
2684 26
2685 91
2686 5F
2687 C4
2688 50
2689 71
268A 58
268B 0D
268C 18
268D BA
268E F3
268F F8
2690 2E
2691 99
2692 BD
2693 2B
2694 5E
2695 EF
2696 F1
2697 D7
2698 FB
2699 9D
269A 2F
269B 78
269C 82
269D C3
269E FB
269F 30
26A0 0E
26A1 2A
26A2 C0
26A3 66
26A4 AD
26A5 D0
26A6 69
26A7 83
26A8 A9
26A9 9B
26AA EE
26AB A0
26AC 6D
26AD 76
26AE 18
26AF 66
26B0 2F
26B1 D0
26B2 36
26B3 1E
26B4 8B
26B5 84
26B6 71
26B7 3B
26B8 59
26B9 38
26BA 24
26BB 68
26BC 93
26BD C7
26BE C5
26BF A8
26C0 0A
26C1 14
26C2 36
26C3 0D
26C4 3E
26C5 B6
26C6 68
26C7 98
26C8 3B
26C9 96
26CA 8C
26CB A1
26CC 38
26CD 60
26CE 38
26CF 60
26D0 B2
26D1 FA
26D2 97
26D3 AA
26D4 1E
26D5 89
26D6 82
26D7 D4
26D8 3B
26D9 76
26DA EE
26DB A7
26DC 8F
26DD 11
26DE AF
26DF 5F
26E0 71
26E1 84
26E2 73
26E3 DF
26E4 7B
26E5 86
26E6 9C
26E7 1F
26E8 F2
26E9 3A
26EA 48
26EB 66
26EC 2E
26ED 90
26EE F8
26EF 73
26F0 A2
26F1 D9
26F2 E7
26F3 37
26F4 5D
26F5 5F
26F6 A4
26F7 3C
26F8 D1
26F9 46
26FA F2
26FB 4D
26FC E5
26FD 15
26FE F8
26FF D5
2700 F1
2701 20
2702 FF
2703 28
2704 37
2705 63
2706 D3
2707 4D
2708 89
2709 C7
270A DA
270B 15
270C 51
270D BB
270E A4
270F 41
2710 22
2711 5E
2712 E4
2713 D5
2714 AC
2715 01
2716 97
2717 B1
2718 FD
2719 D8
271A 25
271B C6
271C 90
271D B4
271E BC
271F 76
2720 94
2721 80
2722 62
2723 0A
2724 5A
2725 AE
2726 70
2727 22
2728 FA
2729 F4
272A C2
272B 79
272C 78
272D 40
272E 2E
272F DB
2730 46
2731 9F
2732 D7
2733 58
2734 AC
2735 12
2736 5B
2737 07
2738 C0
2739 2D
273A FB
273B D5
273C 74
273D 7E
273E 6A
273F 5A
2740 EC
2741 B7
2742 84
2743 F1
2744 54
2745 77
2746 55
2747 AF
2748 C5
2749 F4
274A E7
274B 24
274C EA
274D 06
274E 36
274F 3E
2750 6B
2751 A3
2752 2D
2753 E7
2754 A0
2755 36
2756 58
2757 03
2758 0B
2759 6E
275A 16
275B DA
275C 61
275D F2
275E B7
275F 5D
2760 CE
2761 74
2762 A9
2763 28
2764 59
2765 B3
2766 66
2767 36
2768 1F
2769 5A
276A 9B
276B A4
276C DF
276D DB
276E E8
276F 63
2770 72
2771 93
2772 19
2773 5E
2774 C6
2775 E8
2776 50
2777 BB
2778 F4
2779 14
277A 6D
277B 97
277C 46
277D AA
277E FC
277F AC
2780 D9
2781 77
2782 23
2783 12
2784 BE
2785 B6
2786 A2
2787 65
2788 44
2789 DD
278A 1D
278B 7C
278C B5
278D 99
278E 60
278F BE
2790 A6
2791 10
2792 31
2793 DC
2794 2D
2795 4C
2796 D4
2797 49
2798 BA
2799 5B
279A BE
279B 1D
279C 35
279D 20
279E D9
279F A2
27A0 7E
27A1 78
27A2 8B
27A3 F4
27A4 FD
27A5 C4
27A6 57
27A7 9E
27A8 48
27A9 C6
27AA BF
27AB 02
27AC 7D
27AD 96
27AE B2
27AF 7A
27B0 84
27B1 76
27B2 3D
27B3 C8
27B4 B5
27B5 94
27B6 B4
27B7 8E
27B8 10
27B9 AA
27BA C8
27BB DC
27BC 13
27BD E5
27BE F6
27BF 56
27C0 79
27C1 1B
27C2 8C
27C3 1F
27C4 56
27C5 6C
27C6 0F
27C7 7A
27C8 0E
27C9 55
27CA 20
27CB 85
27CC 79
27CD 43
27CE 92
27CF 15
27D0 00
27D1 62
27D2 D8
27D3 7E
27D4 93
27D5 93
27D6 6B
27D7 A0
27D8 0C
27D9 5A
27DA FF
27DB DD
27DC AD
27DD 75
27DE B6
27DF A1
27E0 7B
27E1 15
27E2 65
27E3 C3
27E4 EA
27E5 A8
27E6 6E
27E7 C2
27E8 9F
27E9 27
27EA 87
27EB 97
27EC BE
27ED AA
27EE E9
27EF 38
27F0 45
27F1 3F
27F2 36
27F3 5F
27F4 50
27F5 B5
27F6 11
27F7 BA
27F8 20
27F9 FF
27FA F2
27FB 52
27FC 87
27FD E1
27FE F8
27FF FB
2800 3E
2801 7A
2802 B8
2803 19
2804 73
2805 54
2806 07
2807 B0
2808 0B
2809 5B
280A 03
280B 0E
280C 6A
280D 0F
280E A4
280F 83
2810 C7
2811 98
2812 1F
2813 7B
2814 C0
2815 A0
2816 B1
2817 8D
2818 57
2819 C1
281A 90
281B EB
281C 58
281D 71
281E 33
281F 18
2820 C6
2821 64
2822 51
2823 85
2824 5E
2825 A4
2826 95
2827 48
2828 5A
2829 03
282A D7
282B 49
282C B7
282D 5E
282E 4B
282F 58
2830 8A
2831 E0
2832 C7
2833 FC
2834 6B
2835 52
2836 A2
2837 F5
2838 C7
2839 5A
283A 58
283B 56
283C 39
283D EB
283E 8C
283F 98
2840 87
2841 22
2842 E7
2843 29
2844 86
2845 E7
2846 A5
2847 ED
2848 7A
2849 39
284A BF
284B ED
284C 53
284D 24
284E 4E
284F 7C
2850 1F
2851 CC
2852 80
2853 EE
2854 25
2855 13
2856 0D
2857 48
2858 F7
2859 F4
285A 0C
285B 8C
285C 7D
285D A3
285E DE
285F 4A
2860 C6
2861 C1
2862 45
2863 96
2864 54
2865 58
2866 1F
2867 6B
2868 55
2869 24
286A D6
286B C5
286C 99
286D 6E
286E 33
286F B4
2870 04
2871 36
2872 1A
2873 9E
2874 A8
2875 6F
2876 E5
2877 3D
2878 E3
2879 56
287A D1
287B DC
287C 7F
287D E1
287E 8E
287F F6
2880 1A
2881 31
2882 8D
2883 DC
2884 4E
2885 E9
2886 8F
2887 18
2888 31
2889 AE
288A EF
288B 2B
288C A7
288D 28
288E D6
288F 59
2890 CC
2891 BB
2892 80
2893 90
2894 B3
2895 14
2896 FF
2897 0B
2898 49
2899 D7
289A EA
289B DF
289C 06
289D 20
289E 24
289F 1E
28A0 09
28A1 D2
28A2 00
28A3 F7
28A4 5E
28A5 2D
28A6 9E
28A7 42
28A8 9C
28A9 2F
28AA FE
28AB C5
28AC 9C
28AD 7C
28AE B1
28AF EC
28B0 22
28B1 59
28B2 38
28B3 F0
28B4 A5
28B5 17
28B6 1A
28B7 2B
28B8 BA
28B9 BB
28BA 45
28BB 41
28BC 94
28BD 08
28BE 01
28BF 9D
28C0 9A
28C1 52
28C2 38
28C3 43
28C4 2C
28C5 30
28C6 02
28C7 28
28C8 F7
28C9 5A
28CA 9C
28CB 92
28CC DA
28CD 49
28CE 92
28CF 21
28D0 91
28D1 52
28D2 81
28D3 C3
28D4 D8
28D5 AD
28D6 52
28D7 8F
28D8 DF
28D9 66
28DA 03
28DB 49
28DC B0
28DD 54
28DE 50
28DF 5E
28E0 E1
28E1 F2
28E2 87
28E3 C1
28E4 95
28E5 BB
28E6 9A
28E7 FD
28E8 42
28E9 14
28EA 36
28EB 8E
28EC 04
28ED 35
28EE 05
28EF 9E
28F0 00
28F1 3E
28F2 33
28F3 30
28F4 44
28F5 5D
28F6 D4
28F7 7A
28F8 15
28F9 6F
28FA C8
28FB 68
28FC 3A
28FD 15
28FE 51
28FF 4C
2900 BD
2901 E0
2902 2F
2903 A5
2904 F1
2905 DA
2906 B1
2907 57
2908 E1
2909 E6
290A 68
290B 0B
290C F9
290D 1C
290E B5
290F B2
2910 6C
2911 3E
2912 5E
2913 47
2914 54
2915 37
2916 A8
2917 54
2918 15
2919 98
291A B3
291B 2A
291C 95
291D 29
291E F8
291F 1F
2920 7B
2921 D2
2922 18
2923 2C
2924 90
2925 5E
2926 EB
2927 FB
2928 92
2929 B6
292A B3
292B A8
292C 82
292D 32
292E 52
292F 27
2930 31
2931 55
2932 91
2933 CB
2934 3A
2935 06
2936 7F
2937 A5
2938 C3
2939 B3
293A DC
293B 89
293C B2
293D E9
293E A4
293F 50
2940 D5
2941 4D
2942 D6
2943 C3
2944 DD
2945 4C
2946 5B
2947 85
2948 41
2949 D2
294A E8
294B 18
294C 83
294D 1C
294E 4C
294F AD
2950 C6
2951 1D
2952 8B
2953 BB
2954 95
2955 8A
2956 F2
2957 AF
2958 C5
2959 E8
295A 0D
295B D4
295C 97
295D D5
295E E5
295F 59
2960 B3
2961 15
2962 E4
2963 F0
2964 72
2965 9C
2966 39
2967 E0
2968 BF
2969 1A
296A 90
296B 6D
296C DE
296D 7E
296E 7B
296F B2
2970 17
2971 61
2972 54
2973 98
2974 18
2975 30
2976 B9
2977 C8
2978 8C
2979 7F
297A 52
297B 55
297C C6
297D CE
297E 43
297F 77
2980 58
2981 86
2982 78
2983 78
2984 15
2985 63
2986 B7
2987 46
2988 FF
2989 6D
298A 5A
298B 1F
298C 97
298D 3A
298E AF
298F FF
2990 1C
2991 95
2992 03
2993 D0
2994 AD
2995 75
2996 9A
2997 21
2998 16
2999 5E
299A 14
299B CC
299C F7
299D 52
299E B5
299F 12
29A0 AE
29A1 EC
29A2 1C
29A3 4E
29A4 E4
29A5 1B
29A6 5B
29A7 1A
29A8 27
29A9 45
29AA 92
29AB 22
29AC AC
29AD EB
29AE 69
29AF B4
29B0 66
29B1 F5
29B2 C7
29B3 5E
29B4 39
29B5 12
29B6 70
29B7 4C
29B8 08
29B9 29
29BA E1
29BB 84
29BC 9E
29BD F6
29BE 26
29BF 20
29C0 2C
29C1 FF
29C2 B1
29C3 6F
29C4 C8
29C5 61
29C6 65
29C7 77
29C8 59
29C9 74
29CA 1F
29CB 27
29CC D6
29CD 6E
29CE 21
29CF 97
29D0 00
29D1 68
29D2 07
29D3 B8
29D4 96
29D5 39
29D6 98
29D7 7C
29D8 F8
29D9 E8
29DA 68
29DB EA
29DC 02
29DD 65
29DE 10
29DF 89
29E0 13
29E1 E4
29E2 A5
29E3 C3
29E4 DF
29E5 D7
29E6 58
29E7 A2
29E8 1E
29E9 14
29EA A3
29EB 6F
29EC C6
29ED 1F
29EE 55
29EF 40
29F0 C7
29F1 DD
29F2 C0
29F3 48
29F4 A4
29F5 AD
29F6 2F
29F7 42
29F8 45
29F9 BA
29FA 15
29FB E0
29FC 80
29FD AA
29FE 22
29FF CE
2A00 18
2A01 ED
2A02 D7
2A03 EF
2A04 58
2A05 EA
2A06 56
2A07 E6
2A08 7E
2A09 BF
2A0A 15
2A0B F9
2A0C 39
2A0D FF
2A0E 63
2A0F 97
2A10 3D
2A11 49
2A12 27
2A13 13
2A14 F8
2A15 A9
2A16 65
2A17 E7
2A18 41
2A19 A7
2A1A 07
2A1B AB
2A1C 0B
2A1D D7
2A1E E8
2A1F 75
2A20 A9
2A21 85
2A22 15
2A23 FE
2A24 77
2A25 AE
2A26 AE
2A27 8E
2A28 4A
2A29 22
2A2A A7
2A2B D5
2A2C C7
2A2D 04
2A2E 2E
2A2F CF
2A30 41
2A31 EC
2A32 D3
2A33 30
2A34 8C
2A35 89
2A36 53
2A37 38
2A38 2E
2A39 60
2A3A 8D
2A3B 77
2A3C DB
2A3D F0
2A3E DE
2A3F 51
2A40 C4
2A41 2B
2A42 99
2A43 26
2A44 1E
2A45 82
2A46 14
2A47 B4
2A48 C3
2A49 31
2A4A 49
2A4B 2B
2A4C 2B
2A4D A2
2A4E E2
2A4F 9F
2A50 17
2A51 8C
2A52 91
2A53 C7
2A54 7E
2A55 18
2A56 DE
2A57 52
2A58 6D
2A59 16
2A5A 68
2A5B B1
2A5C EB
2A5D 81
2A5E 0F
2A5F A0
2A60 A8
2A61 64
2A62 9E
2A63 5E
2A64 76
2A65 0D
2A66 CA
2A67 A6
2A68 61
2A69 CE
2A6A 81
2A6B 6F
2A6C C2
2A6D 82
2A6E 3A
2A6F 1D
2A70 6E
2A71 B7
2A72 7E
2A73 A7
2A74 01
2A75 C8
2A76 3B
2A77 05
2A78 66
2A79 B2
2A7A FF
2A7B 8C
2A7C D8
2A7D 4C
2A7E 99
2A7F A5
2A80 17
2A81 44
2A82 6B
2A83 9F
2A84 09
2A85 6F
2A86 B3
2A87 93
2A88 4F
2A89 5C
2A8A 10
2A8B A0
2A8C 4A
2A8D 1B
2A8E 25
2A8F 21
2A90 31
2A91 E0
2A92 9F
2A93 FD
2A94 77
2A95 24
2A96 47
2A97 F1
2A98 A8
2A99 C5
2A9A 24
2A9B 1D
2A9C 98
2A9D 9C
2A9E CA
2A9F CD
2AA0 76
2AA1 C5
2AA2 F9
2AA3 B7
2AA4 FF
2AA5 03
2AA6 4E
2AA7 C6
2AA8 1E
2AA9 69
2AAA D6
2AAB D1
2AAC ED
2AAD 23
2AAE 1B
2AAF BB
2AB0 24
2AB1 CE
2AB2 4B
2AB3 E5
2AB4 DC
2AB5 02
2AB6 EF
2AB7 05
2AB8 6A
2AB9 BE
2ABA D0
2ABB B7
2ABC E6
2ABD F6
2ABE C4
2ABF 6F
2AC0 FF
2AC1 68
2AC2 2F
2AC3 56
2AC4 1A
2AC5 6B
2AC6 A2
2AC7 42
2AC8 4F
2AC9 25
2ACA 0F
2ACB 10
2ACC 69
2ACD 72
2ACE 9F
2ACF 90
2AD0 A0
2AD1 F6
2AD2 DB
2AD3 9B
2AD4 19
2AD5 62
2AD6 38
2AD7 A3
2AD8 9E
2AD9 F2
2ADA F7
2ADB 98
2ADC 25
2ADD F8
2ADE 4A
2ADF 6B
2AE0 EF
2AE1 7D
2AE2 15
2AE3 3F
2AE4 6A
2AE5 81
2AE6 3D
2AE7 57
2AE8 F4
2AE9 6F
2AEA 25
2AEB D6
2AEC F7
2AED 40
2AEE BA
2AEF 5E
2AF0 F7
2AF1 C9
2AF2 C0
2AF3 24
2AF4 82
2AF5 43
2AF6 5D
2AF7 C9
2AF8 3A
2AF9 FC
2AFA CC
2AFB 94
2AFC 68
2AFD C7
2AFE C6
2AFF 5C
2B00 2D
2B01 ED
2B02 32
2B03 B2
2B04 A4
2B05 5E
2B06 ED
2B07 1C
2B08 C4
2B09 63
2B0A F9
2B0B 8F
2B0C 93
2B0D 59
2B0E BA
2B0F 79
2B10 B5
2B11 E4
2B12 2B
2B13 B6
2B14 D5
2B15 FB
2B16 B5
2B17 C2
2B18 AD
2B19 61
2B1A 51
2B1B C1
2B1C A3
2B1D 78
2B1E 56
2B1F 0F
2B20 78
2B21 73
2B22 B2
2B23 46
2B24 8C
2B25 66
2B26 45
2B27 34
2B28 09
2B29 EE
2B2A AA
2B2B 2F
2B2C B4
2B2D A6
2B2E CE
2B2F E6
2B30 B1
2B31 8C
2B32 6F
2B33 36
2B34 E7
2B35 5F
2B36 4F
2B37 D1
2B38 C5
2B39 BF
2B3A 2D
2B3B 79
2B3C 8D
2B3D 49
2B3E 29
2B3F AB
2B40 00
2B41 CB
2B42 0D
2B43 EB
2B44 B6
2B45 6C
2B46 86
2B47 FB
2B48 14
2B49 8A
2B4A AF
2B4B FF
2B4C 74
2B4D EC
2B4E 15
2B4F 4C
2B50 E5
2B51 CC
2B52 60
2B53 B9
2B54 4B
2B55 BE
2B56 CC
2B57 C5
2B58 40
2B59 23
2B5A 36
2B5B 8F
2B5C 27
2B5D CF
2B5E BE
2B5F CD
2B60 98
2B61 FE
2B62 3A
2B63 B4
2B64 93
2B65 E1
2B66 56
2B67 1A
2B68 12
2B69 A2
2B6A 20
2B6B 56
2B6C 0D
2B6D 3C
2B6E E9
2B6F A6
2B70 56
2B71 77
2B72 3B
2B73 D2
2B74 D6
2B75 73
2B76 3C
2B77 2A
2B78 89
2B79 E3
2B7A 89
2B7B 31
2B7C 3C
2B7D 5E
2B7E D5
2B7F 32
2B80 1F
2B81 D4
2B82 C9
2B83 32
2B84 07
2B85 E5
2B86 F8
2B87 D6
2B88 3B
2B89 30
2B8A 49
2B8B 39
2B8C C5
2B8D 7A
2B8E 29
2B8F 36
2B90 85
2B91 4D
2B92 69
2B93 0A
2B94 A6
2B95 99
2B96 EA
2B97 47
2B98 85
2B99 B4
2B9A A2
2B9B D5
2B9C 7A
2B9D 8D
2B9E 5F
2B9F AB
2BA0 7E
2BA1 74
2BA2 56
2BA3 2F
2BA4 A4
2BA5 BB
2BA6 2E
2BA7 34
2BA8 D4
2BA9 F1
2BAA 82
2BAB 4A
2BAC 33
2BAD BE
2BAE 95
2BAF BA
2BB0 7D
2BB1 58
2BB2 7A
2BB3 98
2BB4 53
2BB5 BD
2BB6 17
2BB7 06
2BB8 DB
2BB9 0F
2BBA 57
2BBB D3
2BBC C3
2BBD 08
2BBE 81
2BBF 58
2BC0 49
2BC1 87
2BC2 85
2BC3 B3
2BC4 FA
2BC5 2B
2BC6 ED
2BC7 EB
2BC8 8C
2BC9 37
2BCA 75
2BCB 00
2BCC 70
2BCD A5
2BCE 7B
2BCF 4F
2BD0 42
2BD1 BD
2BD2 22
2BD3 B7
2BD4 92
2BD5 05
2BD6 88
2BD7 3E
2BD8 B7
2BD9 BD
2BDA E3
2BDB 99
2BDC CD
2BDD CA
2BDE 6B
2BDF 5A
2BE0 9B
2BE1 73
2BE2 13
2BE3 DE
2BE4 78
2BE5 49
2BE6 56
2BE7 97
2BE8 3E
2BE9 8E
2BEA 6D
2BEB BE
2BEC 2F
2BED 1D
2BEE 5D
2BEF 87
2BF0 4B
2BF1 70
2BF2 BA
2BF3 AE
2BF4 5D
2BF5 89
2BF6 9F
2BF7 B6
2BF8 8E
2BF9 07
2BFA 79
2BFB D7
2BFC DD
2BFD CA
2BFE 0B
2BFF D0
2C00 B6
2C01 6C
2C02 95
2C03 4D
2C04 B6
2C05 51
2C06 A2
2C07 D5
2C08 A2
2C09 29
2C0A 2B
2C0B FE
2C0C 20
2C0D 61
2C0E 1A
2C0F 6F
2C10 C4
2C11 D0
2C12 19
2C13 9E
2C14 2B
2C15 26
2C16 05
2C17 D1
2C18 8D
2C19 8E
2C1A 5F
2C1B FE
2C1C 14
2C1D 99
2C1E FB
2C1F 00
2C20 17
2C21 A2
2C22 7E
2C23 8C
2C24 0A
2C25 72
2C26 1F
2C27 5F
2C28 86
2C29 AB
2C2A DB
2C2B 34
2C2C FF
2C2D 82
2C2E 02
2C2F 98
2C30 F0
2C31 1B
2C32 DC
2C33 D9
2C34 31
2C35 78
2C36 BF
2C37 53
2C38 65
2C39 30
2C3A 8A
2C3B DD
2C3C C3
2C3D 30
2C3E E7
2C3F 09
2C40 A5
2C41 CD
2C42 3E
2C43 CA
2C44 BE
2C45 90
2C46 AE
2C47 EB
2C48 EA
2C49 9A
2C4A 4D
2C4B 80
2C4C EF
2C4D 0A
2C4E 15
2C4F AB
2C50 FC
2C51 83
2C52 30
2C53 F7
2C54 0E
2C55 F4
2C56 CA
2C57 2A
2C58 5B
2C59 BC
2C5A 60
2C5B 92
2C5C 76
2C5D DE
2C5E 87
2C5F 92
2C60 74
2C61 6C
2C62 FD
2C63 35
2C64 F6
2C65 DB
2C66 AC
2C67 4F
2C68 F0
2C69 93
2C6A 3E
2C6B 69
2C6C EB
2C6D D3
2C6E 51
2C6F 6A
2C70 5A
2C71 77
2C72 29
2C73 F0
2C74 D3
2C75 11
2C76 FE
2C77 67
2C78 07
2C79 D3
2C7A 7A
2C7B 9C
2C7C AA
2C7D AA
2C7E 77
2C7F E4
2C80 B5
2C81 FD
2C82 75
2C83 40
2C84 5A
2C85 B2
2C86 08
2C87 82
2C88 31
2C89 05
2C8A AE
2C8B 2D
2C8C B7
2C8D 74
2C8E 10
2C8F 8D
2C90 C2
2C91 B5
2C92 52
2C93 63
2C94 76
2C95 3E
2C96 3A
2C97 79
2C98 CC
2C99 DD
2C9A C7
2C9B BF
2C9C 16
2C9D 23
2C9E 64
2C9F B9
2CA0 18
2CA1 C5
2CA2 51
2CA3 42
2CA4 1E
2CA5 D8
2CA6 22
2CA7 77
2CA8 D1
2CA9 86
2CAA 1C
2CAB 6D
2CAC CB
2CAD 46
2CAE 3E
2CAF D0
2CB0 80
2CB1 0D
2CB2 C5
2CB3 09
2CB4 81
2CB5 D2
2CB6 A2
2CB7 0B
2CB8 C5
2CB9 B5
2CBA 7D
2CBB 77
2CBC 43
2CBD 18
2CBE B7
2CBF 6D
2CC0 1B
2CC1 65
2CC2 73
2CC3 23
2CC4 65
2CC5 D3
2CC6 21
2CC7 E6
2CC8 1A
2CC9 D6
2CCA 30
2CCB D3
2CCC D0
2CCD 02
2CCE 83
2CCF 63
2CD0 91
2CD1 54
2CD2 6B
2CD3 11
2CD4 2F
2CD5 78
2CD6 9F
2CD7 09
2CD8 C5
2CD9 F4
2CDA C0
2CDB A2
2CDC 33
2CDD 7B
2CDE EF
2CDF 51
2CE0 EE
2CE1 AE
2CE2 35
2CE3 5F
2CE4 AE
2CE5 8A
2CE6 9D
2CE7 39
2CE8 76
2CE9 A0
2CEA F5
2CEB D8
2CEC 7F
2CED A6
2CEE 4C
2CEF B2
2CF0 FB
2CF1 17
2CF2 E9
2CF3 85
2CF4 38
2CF5 C1
2CF6 9B
2CF7 B7
2CF8 18
2CF9 0A
2CFA A4
2CFB 57
2CFC FC
2CFD 80
2CFE F5
2CFF 21
2D00 CD
2D01 5F
2D02 43
2D03 82
2D04 56
2D05 C5
2D06 13
2D07 94
2D08 C2
2D09 F1
2D0A 54
2D0B AA
2D0C 87
2D0D 63
2D0E 1F
2D0F 69
2D10 6F
2D11 07
2D12 BF
2D13 E6
2D14 1F
2D15 F6
2D16 3F
2D17 D9
2D18 58
2D19 9A
2D1A 72
2D1B 10
2D1C 73
2D1D F5
2D1E DE
2D1F A9
2D20 C8
2D21 A6
2D22 B6
2D23 8E
2D24 6E
2D25 82
2D26 90
2D27 2B
2D28 C6
2D29 95
2D2A AB
2D2B A5
2D2C 91
2D2D FF
2D2E 5A
2D2F 47
2D30 46
2D31 63
2D32 F4
2D33 7C
2D34 EE
2D35 55
2D36 76
2D37 09
2D38 37
2D39 78
2D3A CF
2D3B E4
2D3C CC
2D3D BD
2D3E 23
2D3F AD
2D40 7E
2D41 46
2D42 2C
2D43 C7
2D44 73
2D45 24
2D46 81
2D47 81
2D48 2E
2D49 72
2D4A E1
2D4B 95
2D4C 06
2D4D 8B
2D4E B0
2D4F 2F
2D50 F1
2D51 07
2D52 3F
2D53 4B
2D54 4F
2D55 84
2D56 70
2D57 CC
2D58 B9
2D59 DF
2D5A 5E
2D5B 08
2D5C C5
2D5D 13
2D5E 6C
2D5F 94
2D60 F6
2D61 00
2D62 78
2D63 48
2D64 64
2D65 86
2D66 35
2D67 2D
2D68 35
2D69 CC
2D6A 67
2D6B 2D
2D6C C7
2D6D 70
2D6E 23
2D6F C9
2D70 9B
2D71 BC
2D72 13
2D73 00
2D74 59
2D75 05
2D76 E9
2D77 F1
2D78 41
2D79 CC
2D7A 88
2D7B BC
2D7C 5C
2D7D F5
2D7E 98
2D7F 82
2D80 58
2D81 A5
2D82 60
2D83 42
2D84 42
2D85 B9
2D86 5C
2D87 3C
2D88 41
2D89 06
2D8A 48
2D8B B5
2D8C EB
2D8D 6B
2D8E 1F
2D8F 5B
2D90 C6
2D91 D9
2D92 AF
2D93 C4
2D94 52
2D95 2A
2D96 1B
2D97 1D
2D98 87
2D99 0A
2D9A A0
2D9B E4
2D9C 5D
2D9D B5
2D9E 5A
2D9F 9B
2DA0 71
2DA1 35
2DA2 87
2DA3 DF
2DA4 0D
2DA5 8A
2DA6 D5
2DA7 3C
2DA8 31
2DA9 2B
2DAA 36
2DAB 33
2DAC 5E
2DAD 16
2DAE 33
2DAF E6
2DB0 3B
2DB1 B5
2DB2 B1
2DB3 38
2DB4 B5
2DB5 C6
2DB6 E9
2DB7 B7
2DB8 64
2DB9 72
2DBA 8E
2DBB 23
2DBC DF
2DBD 8B
2DBE 49
2DBF 3B
2DC0 A2
2DC1 82
2DC2 43
2DC3 03
2DC4 16
2DC5 55
2DC6 1B
2DC7 BB
2DC8 5C
2DC9 B5
2DCA 1E
2DCB 76
2DCC A6
2DCD E4
2DCE 80
2DCF CC
2DD0 80
2DD1 60
2DD2 8A
2DD3 03
2DD4 19
2DD5 5B
2DD6 3C
2DD7 EF
2DD8 B2
2DD9 B7
2DDA 68
2DDB 4F
2DDC 11
2DDD 35
2DDE 5D
2DDF 4F
2DE0 D1
2DE1 A5
2DE2 A5
2DE3 50
2DE4 FD
2DE5 0B
2DE6 0C
2DE7 AF
2DE8 18
2DE9 64
2DEA 78
2DEB 9B
2DEC 9A
2DED 8D
2DEE 89
2DEF 7F
2DF0 C9
2DF1 DB
2DF2 83
2DF3 40
2DF4 57
2DF5 DF
2DF6 DC
2DF7 1B
2DF8 E5
2DF9 DC
2DFA 01
2DFB E8
2DFC 5E
2DFD 55
2DFE 22
2DFF C1
2E00 15
2E01 7A
2E02 65
2E03 F5
2E04 D6
2E05 E2
2E06 AF
2E07 71
2E08 AC
2E09 4C
2E0A B0
2E0B FD
2E0C 70
2E0D 57
2E0E 50
2E0F 3A
2E10 52
2E11 A3
2E12 9F
2E13 65
2E14 0B
2E15 3B
2E16 D1
2E17 81
2E18 EE
2E19 A6
2E1A C3
2E1B 67
2E1C E2
2E1D AD
2E1E 14
2E1F 8E
2E20 AA
2E21 DF
2E22 31
2E23 2D
2E24 56
2E25 A0
2E26 49
2E27 E2
2E28 7F
2E29 E9
2E2A A1
2E2B B2
2E2C 59
2E2D 1A
2E2E AC
2E2F C8
2E30 46
2E31 63
2E32 E3
2E33 E5
2E34 EB
2E35 B7
2E36 49
2E37 78
2E38 72
2E39 BE
2E3A 52
2E3B AD
2E3C CC
2E3D D9
2E3E A1
2E3F 78
2E40 40
2E41 63
2E42 62
2E43 82
2E44 BD
2E45 3A
2E46 AC
2E47 27
2E48 1E
2E49 98
2E4A 41
2E4B 63
2E4C CB
2E4D A1
2E4E 32
2E4F 3C
2E50 AE
2E51 19
2E52 1E
2E53 33
2E54 F9
2E55 DB
2E56 93
2E57 5B
2E58 F9
2E59 F2
2E5A 22
2E5B A5
2E5C 59
2E5D 3E
2E5E 95
2E5F EC
2E60 EB
2E61 95
2E62 0E
2E63 0E
2E64 08
2E65 68
2E66 7D
2E67 B1
2E68 53
2E69 8C
2E6A 22
2E6B 5D
2E6C 99
2E6D 4F
2E6E 99
2E6F 64
2E70 2D
2E71 E5
2E72 1D
2E73 57
2E74 12
2E75 0C
2E76 46
2E77 A2
2E78 03
2E79 39
2E7A 84
2E7B 5C
2E7C 8E
2E7D 54
2E7E D4
2E7F 36
2E80 53
2E81 A6
2E82 12
2E83 52
2E84 57
2E85 18
2E86 91
2E87 FC
2E88 6C
2E89 C6
2E8A 0C
2E8B F3
2E8C 52
2E8D B8
2E8E BB
2E8F 9A
2E90 41
2E91 CE
2E92 36
2E93 4E
2E94 A9
2E95 BA
2E96 E1
2E97 A6
2E98 17
2E99 00
2E9A 20
2E9B 85
2E9C 3F
2E9D A4
2E9E 25
2E9F FC
2EA0 43
2EA1 63
2EA2 BB
2EA3 2D
2EA4 3B
2EA5 15
2EA6 FA
2EA7 22
2EA8 B8
2EA9 26
2EAA 39
2EAB 83
2EAC F4
2EAD 0A
2EAE 18
2EAF 49
2EB0 09
2EB1 0D
2EB2 BC
2EB3 15
2EB4 E2
2EB5 AE
2EB6 5D
2EB7 70
2EB8 2A
2EB9 2F
2EBA D1
2EBB FD
2EBC 61
2EBD 41
2EBE 20
2EBF 60
2EC0 93
2EC1 0C
2EC2 5F
2EC3 F5
2EC4 60
2EC5 E0
2EC6 82
2EC7 34
2EC8 47
2EC9 3D
2ECA C7
2ECB 0B
2ECC A4
2ECD B6
2ECE 03
2ECF 94
2ED0 0F
2ED1 3B
2ED2 93
2ED3 97
2ED4 BA
2ED5 93
2ED6 27
2ED7 69
2ED8 71
2ED9 6E
2EDA 21
2EDB 55
2EDC 31
2EDD BC
2EDE 28
2EDF F4
2EE0 CF
2EE1 93
2EE2 64
2EE3 CC
2EE4 00
2EE5 5F
2EE6 25
2EE7 FA
2EE8 9A
2EE9 58
2EEA 98
2EEB 8B
2EEC 21
2EED 14
2EEE FF
2EEF BB
2EF0 F8
2EF1 39
2EF2 CB
2EF3 3F
2EF4 11
2EF5 92
2EF6 41
2EF7 32
2EF8 05
2EF9 21
2EFA A1
2EFB 2F
2EFC 47
2EFD 84
2EFE E9
2EFF D4
2F00 98
2F01 37
2F02 AE
2F03 77
2F04 57
2F05 EE
2F06 3F
2F07 39
2F08 EF
2F09 D2
2F0A 33
2F0B 6D
2F0C 7E
2F0D F9
2F0E 4D
2F0F 7B
2F10 48
2F11 0B
2F12 1F
2F13 32
2F14 6E
2F15 A7
2F16 39
2F17 AA
2F18 07
2F19 23
2F1A B3
2F1B CD
2F1C AC
2F1D 37
2F1E D3
2F1F 8E
2F20 2B
2F21 61
2F22 AE
2F23 2B
2F24 FA
2F25 F5
2F26 1E
2F27 C9
2F28 BE
2F29 F1
2F2A B5
2F2B B0
2F2C B0
2F2D 85
2F2E EC
2F2F D7
2F30 59
2F31 44
2F32 A8
2F33 90
2F34 45
2F35 23
2F36 73
2F37 BB
2F38 51
2F39 7E
2F3A 59
2F3B AE
2F3C 2A
2F3D 37
2F3E 3D
2F3F F8
2F40 63
2F41 BD
2F42 67
2F43 2B
2F44 BB
2F45 35
2F46 38
2F47 5E
2F48 81
2F49 DC
2F4A 47
2F4B DD
2F4C 29
2F4D 6C
2F4E 61
2F4F 0C
2F50 AA
2F51 93
2F52 3D
2F53 AE
2F54 91
2F55 CA
2F56 E2
2F57 53
2F58 6B
2F59 95
2F5A A5
2F5B 95
2F5C E0
2F5D 4D
2F5E BD
2F5F 6E
2F60 2A
2F61 F1
2F62 C3
2F63 0B
2F64 FF
2F65 9C
2F66 AA
2F67 87
2F68 97
2F69 CB
2F6A F1
2F6B 54
2F6C 86
2F6D 99
2F6E 9C
2F6F CC
2F70 51
2F71 16
2F72 A7
2F73 12
2F74 95
2F75 C4
2F76 F6
2F77 8A
2F78 BA
2F79 88
2F7A F4
2F7B 6C
2F7C 5E
2F7D DB
2F7E E0
2F7F 5D
2F80 32
2F81 15
2F82 AD
2F83 81
2F84 35
2F85 51
2F86 C5
2F87 11
2F88 06
2F89 BE
2F8A C5
2F8B 27
2F8C B2
2F8D F5
2F8E 4C
2F8F 25
2F90 34
2F91 02
2F92 EC
2F93 B9
2F94 61
2F95 EE
2F96 07
2F97 8E
2F98 93
2F99 73
2F9A 57
2F9B B0
2F9C B6
2F9D 42
2F9E 26
2F9F E5
2FA0 59
2FA1 01
2FA2 FB
2FA3 A3
2FA4 0A
2FA5 0F
2FA6 36
2FA7 74
2FA8 A2
2FA9 1E
2FAA BB
2FAB 3F
2FAC 61
2FAD B5
2FAE 49
2FAF 64
2FB0 F4
2FB1 04
2FB2 FE
2FB3 7A
2FB4 9A
2FB5 01
2FB6 97
2FB7 58
2FB8 24
2FB9 0A
2FBA DA
2FBB B7
2FBC 5E
2FBD B8
2FBE F6
2FBF A7
2FC0 0D
2FC1 9E
2FC2 9F
2FC3 4D
2FC4 AB
2FC5 B4
2FC6 A0
2FC7 4E
2FC8 FE
2FC9 42
2FCA 01
2FCB 72
2FCC DB
2FCD 54
2FCE CD
2FCF AE
2FD0 0C
2FD1 02
2FD2 A7
2FD3 36
2FD4 BE
2FD5 5D
2FD6 E2
2FD7 7E
2FD8 65
2FD9 9E
2FDA DC
2FDB 2D
2FDC A8
2FDD 8F
2FDE C8
2FDF D7
2FE0 43
2FE1 5A
2FE2 36
2FE3 09
2FE4 95
2FE5 3F
2FE6 42
2FE7 C8
2FE8 BE
2FE9 7A
2FEA 26
2FEB BA
2FEC B1
2FED B4
2FEE 6D
2FEF CB
2FF0 7E
2FF1 23
2FF2 50
2FF3 D5
2FF4 1F
2FF5 C0
2FF6 CE
2FF7 89
2FF8 DF
2FF9 C3
2FFA 19
2FFB 3E
2FFC D5
2FFD 44
2FFE 32
2FFF C7
3000 1C
3001 21
3002 40
3003 1A
3004 FF
3005 46
3006 D5
3007 26
3008 9B
3009 19
300A 11
300B BE
300C 93
300D DE
300E 56
300F 4B
3010 6F
3011 FD
3012 19
3013 B4
3014 8B
3015 D1
3016 DA
3017 E8
3018 B2
3019 CB
301A BC
301B 52
301C 16
301D 01
301E AD
301F F0
3020 5D
3021 B3
3022 59
3023 F3
3024 F6
3025 BE
3026 80
3027 D9
3028 55
3029 2F
302A 7A
302B E1
302C E8
302D 62
302E 04
302F 11
3030 FF
3031 FC
3032 DD
3033 5F
3034 94
3035 D0
3036 32
3037 48
3038 59
3039 2B
303A A3
303B 44
303C 09
303D D7
303E 85
303F A6
3040 95
3041 95
3042 F6
3043 52
3044 3D
3045 D1
3046 D0
3047 E7
3048 23
3049 97
304A 3F
304B 9D
304C A4
304D 43
304E 6A
304F 6B
3050 DE
3051 57
3052 CB
3053 02
3054 C6
3055 35
3056 E3
3057 4A
3058 74
3059 CD
305A 29
305B 97
305C E3
305D A2
305E B9
305F AD
3060 88
3061 29
3062 89
3063 EC
3064 4E
3065 63
3066 AC
3067 BD
3068 1D
3069 6E
306A C1
306B 58
306C CD
306D F9
306E BE
306F EF
3070 30
3071 04
3072 0A
3073 21
3074 B1
3075 2C
3076 2C
3077 4B
3078 60
3079 7C
307A 34
307B 42
307C 0C
307D 29
307E FB
307F 76
3080 69
3081 C9
3082 D6
3083 73
3084 0A
3085 0B
3086 1C
3087 9E
3088 F1
3089 E5
308A EE
308B 92
308C E9
308D DD
308E BD
308F 5C
3090 26
3091 D1
3092 ED
3093 6A
3094 33
3095 FA
3096 51
3097 1B
3098 08
3099 65
309A 8E
309B AF
309C B1
309D D9
309E DF
309F 3E
30A0 E1
30A1 B3
30A2 BC
30A3 B8
30A4 E7
30A5 9C
30A6 0E
30A7 CD
30A8 E7
30A9 F4
30AA 6C
30AB 87
30AC CA
30AD D9
30AE 6E
30AF BD
30B0 2F
30B1 02
30B2 18
30B3 4A
30B4 44
30B5 AD
30B6 BB
30B7 28
30B8 3C
30B9 9D
30BA 9A
30BB 7E
30BC 86
30BD BD
30BE 28
30BF 75
30C0 2F
30C1 60
30C2 90
30C3 49
30C4 02
30C5 7F
30C6 A7
30C7 EB
30C8 E9
30C9 C8
30CA 87
30CB FE
30CC B8
30CD 6B
30CE C0
30CF 94
30D0 4B
30D1 86
30D2 B0
30D3 F2
